{
  "version": "1.0",
  "truncation": null,
  "padding": null,
  "added_tokens": [],
  "normalizer": {
    "type": "Sequence",
    "normalizers": [
      {
        "type": "NFD"
      },
      {
        "type": "Lowercase"
      },
      {
        "type": "StripAccents"
      }
    ]
  },
  "pre_tokenizer": {
    "type": "Whitespace"
  },
  "post_processor": null,
  "decoder": {
    "type": "WordPiece",
    "prefix": "##",
    "cleanup": true
  },
  "model": {
    "type": "WordPiece",
    "unk_token": "[UNK]",
    "continuing_subword_prefix": "##",
    "max_input_chars_per_word": 100,
    "vocab": {
      "!": 0,
      "\"": 1,
      "#": 2,
      "$": 3,
      "%": 4,
      "&": 5,
      "'": 6,
      "(": 7,
      ")": 8,
      "*": 9,
      "+": 10,
      ",": 11,
      "-": 12,
      ".": 13,
      "/": 14,
      "0": 15,
      "1": 16,
      "2": 17,
      "3": 18,
      "4": 19,
      "5": 20,
      "6": 21,
      "7": 22,
      "8": 23,
      "9": 24,
      ":": 25,
      ";": 26,
      "=": 27,
      ">": 28,
      "?": 29,
      "@": 30,
      "[": 31,
      "\\": 32,
      "]": 33,
      "^": 34,
      "_": 35,
      "`": 36,
      "a": 37,
      "b": 38,
      "c": 39,
      "d": 40,
      "e": 41,
      "f": 42,
      "g": 43,
      "h": 44,
      "i": 45,
      "j": 46,
      "k": 47,
      "l": 48,
      "m": 49,
      "n": 50,
      "o": 51,
      "p": 52,
      "q": 53,
      "r": 54,
      "s": 55,
      "t": 56,
      "u": 57,
      "v": 58,
      "w": 59,
      "x": 60,
      "y": 61,
      "z": 62,
      "{": 63,
      "|": 64,
      "}": 65,
      "~": 66,
      "": 67,
      "£": 68,
      "«": 69,
      "­": 70,
      "®": 71,
      "°": 72,
      "±": 73,
      "·": 74,
      "»": 75,
      "¼": 76,
      "×": 77,
      "æ": 78,
      "ð": 79,
      "ø": 80,
      "ı": 81,
      "ɔ": 82,
      "ʖ": 83,
      "α": 84,
      "β": 85,
      "δ": 86,
      "ε": 87,
      "θ": 88,
      "ω": 89,
      "а": 90,
      "б": 91,
      "в": 92,
      "г": 93,
      "д": 94,
      "е": 95,
      "ж": 96,
      "з": 97,
      "и": 98,
      "к": 99,
      "л": 100,
      "м": 101,
      "н": 102,
      "о": 103,
      "п": 104,
      "р": 105,
      "с": 106,
      "т": 107,
      "у": 108,
      "ф": 109,
      "х": 110,
      "ц": 111,
      "ч": 112,
      "ш": 113,
      "щ": 114,
      "ъ": 115,
      "ы": 116,
      "ь": 117,
      "э": 118,
      "ю": 119,
      "я": 120,
      "і": 121,
      "​": 122,
      "‎": 123,
      "‏": 124,
      "‑": 125,
      "–": 126,
      "—": 127,
      "―": 128,
      "‘": 129,
      "’": 130,
      "“": 131,
      "”": 132,
      "„": 133,
      "•": 134,
      "…": 135,
      "‪": 136,
      "№": 137,
      "™": 138,
      "∆": 139,
      "⊕": 140,
      "ⓜ": 141,
      "─": 142,
      "△": 143,
      "►": 144,
      "☀": 145,
      "☝": 146,
      "☺": 147,
      "⚽": 148,
      "✨": 149,
      "❁": 150,
      "❤": 151,
      "、": 152,
      "。": 153,
      "『": 154,
      "』": 155,
      "〜": 156,
      "い": 157,
      "お": 158,
      "か": 159,
      "き": 160,
      "く": 161,
      "け": 162,
      "さ": 163,
      "し": 164,
      "す": 165,
      "た": 166,
      "ち": 167,
      "っ": 168,
      "て": 169,
      "と": 170,
      "な": 171,
      "に": 172,
      "の": 173,
      "は": 174,
      "ほ": 175,
      "め": 176,
      "も": 177,
      "や": 178,
      "よ": 179,
      "り": 180,
      "る": 181,
      "を": 182,
      "ん": 183,
      "ア": 184,
      "イ": 185,
      "ウ": 186,
      "エ": 187,
      "オ": 188,
      "カ": 189,
      "キ": 190,
      "ク": 191,
      "ケ": 192,
      "コ": 193,
      "サ": 194,
      "シ": 195,
      "ス": 196,
      "タ": 197,
      "チ": 198,
      "ッ": 199,
      "ト": 200,
      "ニ": 201,
      "ノ": 202,
      "ハ": 203,
      "ヒ": 204,
      "フ": 205,
      "ヘ": 206,
      "ホ": 207,
      "メ": 208,
      "ャ": 209,
      "ュ": 210,
      "ラ": 211,
      "リ": 212,
      "ン": 213,
      "ー": 214,
      "上": 215,
      "个": 216,
      "今": 217,
      "仕": 218,
      "你": 219,
      "入": 220,
      "写": 221,
      "分": 222,
      "包": 223,
      "可": 224,
      "咪": 225,
      "哪": 226,
      "困": 227,
      "大": 228,
      "天": 229,
      "好": 230,
      "子": 231,
      "宠": 232,
      "帮": 233,
      "平": 234,
      "愛": 235,
      "感": 236,
      "成": 237,
      "担": 238,
      "择": 239,
      "持": 240,
      "気": 241,
      "沙": 242,
      "然": 243,
      "猫": 244,
      "理": 245,
      "症": 246,
      "真": 247,
      "素": 248,
      "練": 249,
      "肌": 250,
      "背": 251,
      "自": 252,
      "良": 253,
      "萌": 254,
      "让": 255,
      "该": 256,
      "負": 257,
      "購": 258,
      "选": 259,
      "难": 260,
      "集": 261,
      "！": 262,
      "？": 263,
      "ｽ": 264,
      "ﾄ": 265,
      "ﾊ": 266,
      "ﾞ": 267,
      "🇸": 268,
      "🇺": 269,
      "🌙": 270,
      "🌪": 271,
      "🌴": 272,
      "🍊": 273,
      "🍑": 274,
      "🍥": 275,
      "🍼": 276,
      "🏆": 277,
      "🏻": 278,
      "🏼": 279,
      "🏽": 280,
      "🏿": 281,
      "🐅": 282,
      "🐇": 283,
      "🐊": 284,
      "🐍": 285,
      "🐒": 286,
      "🐖": 287,
      "🐢": 288,
      "🐣": 289,
      "🐱": 290,
      "🐶": 291,
      "🐽": 292,
      "🐿": 293,
      "👀": 294,
      "👆": 295,
      "👈": 296,
      "👉": 297,
      "👊": 298,
      "👏": 299,
      "👗": 300,
      "👩": 301,
      "👯": 302,
      "👶": 303,
      "👻": 304,
      "👼": 305,
      "💄": 306,
      "💇": 307,
      "💋": 308,
      "💔": 309,
      "💕": 310,
      "💖": 311,
      "💗": 312,
      "💙": 313,
      "💚": 314,
      "💝": 315,
      "💞": 316,
      "💥": 317,
      "💪": 318,
      "📷": 319,
      "📸": 320,
      "🔁": 321,
      "🔸": 322,
      "😂": 323,
      "😃": 324,
      "😄": 325,
      "😆": 326,
      "😉": 327,
      "😊": 328,
      "😍": 329,
      "😎": 330,
      "😘": 331,
      "😜": 332,
      "😬": 333,
      "😱": 334,
      "😴": 335,
      "😸": 336,
      "😻": 337,
      "😽": 338,
      "🙀": 339,
      "🙄": 340,
      "🙈": 341,
      "🙊": 342,
      "🙏": 343,
      "🤓": 344,
      "🤗": 345,
      "🦄": 346,
      "##л": 347,
      "##а": 348,
      "##м": 349,
      "##у": 350,
      "##р": 351,
      "##н": 352,
      "##ы": 353,
      "##е": 354,
      "##ц": 355,
      "##к": 356,
      "##о": 357,
      "##в": 358,
      "##т": 359,
      "##и": 360,
      "##з": 361,
      "##я": 362,
      "##х": 363,
      "##c": 364,
      "##t": 365,
      "##i": 366,
      "##o": 367,
      "##n": 368,
      "##ф": 369,
      "##u": 370,
      "##r": 371,
      "##e": 372,
      "##д": 373,
      "##ж": 374,
      "##с": 375,
      "##б": 376,
      "##l": 377,
      "##y": 378,
      "##h": 379,
      "##ь": 380,
      "##п": 381,
      "##ш": 382,
      "##ч": 383,
      "##г": 384,
      "##ю": 385,
      "##щ": 386,
      "##a": 387,
      "##m": 388,
      "##э": 389,
      "##1": 390,
      "##0": 391,
      "##2": 392,
      "##4": 393,
      "##v": 394,
      "##9": 395,
      "##d": 396,
      "##ъ": 397,
      "##s": 398,
      "##3": 399,
      "##5": 400,
      "##p": 401,
      "##g": 402,
      "##b": 403,
      "##k": 404,
      "##f": 405,
      "##q": 406,
      "##6": 407,
      "##«": 408,
      "##\"": 409,
      "##w": 410,
      "##z": 411,
      "##8": 412,
      "##)": 413,
      "##7": 414,
      "##x": 415,
      "##j": 416,
      "##:": 417,
      "##.": 418,
      "##💞": 419,
      "##💙": 420,
      "##💗": 421,
      "##”": 422,
      "##»": 423,
      "##,": 424,
      "##'": 425,
      "##に": 426,
      "##負": 427,
      "##担": 428,
      "##を": 429,
      "##か": 430,
      "##け": 431,
      "##す": 432,
      "##素": 433,
      "##肌": 434,
      "##っ": 435,
      "##ほ": 436,
      "##く": 437,
      "##_": 438,
      "##子": 439,
      "##理": 440,
      "##沙": 441,
      "##(": 442,
      "##;": 443,
      "##+": 444,
      "##~": 445,
      "##…": 446,
      "##-": 447,
      "##!": 448,
      "##😂": 449,
      "##–": 450,
      "##め": 451,
      "##コ": 452,
      "##ス": 453,
      "##メ": 454,
      "##❤": 455,
      "##“": 456,
      "##*": 457,
      "##—": 458,
      "##@": 459,
      "##🏿": 460,
      "##🙏": 461,
      "##ı": 462,
      "###": 463,
      "##🏻": 464,
      "##/": 465,
      "##ウ": 466,
      "##ン": 467,
      "##写": 468,
      "##真": 469,
      "##集": 470,
      "##💖": 471,
      "##👏": 472,
      "##🏆": 473,
      "##😘": 474,
      "##💝": 475,
      "##😜": 476,
      "##😍": 477,
      "##😃": 478,
      "##🌴": 479,
      "##±": 480,
      "##😉": 481,
      "##ø": 482,
      "##і": 483,
      "##?": 484,
      "##🏼": 485,
      "##👆": 486,
      "##💪": 487,
      "##‎": 488,
      "##]": 489,
      "##ð": 490,
      "##[": 491,
      "##ュ": 492,
      "##リ": 493,
      "##フ": 494,
      "##や": 495,
      "##ア": 496,
      "##ホ": 497,
      "##カ": 498,
      "##ト": 499,
      "##な": 500,
      "##と": 501,
      "##た": 502,
      "##さ": 503,
      "##ん": 504,
      "##入": 505,
      "##サ": 506,
      "##ラ": 507,
      "##タ": 508,
      "##​": 509,
      "##ﾞ": 510,
      "##ｽ": 511,
      "##☀": 512,
      "##ー": 513,
      "##­": 514,
      "##ハ": 515,
      "##🍼": 516,
      "##>": 517,
      "##|": 518,
      "##🤓": 519,
      "##『": 520,
      "##🍊": 521,
      "##✨": 522,
      "##宠": 523,
      "##イ": 524,
      "##キ": 525,
      "##ャ": 526,
      "##ッ": 527,
      "##は": 528,
      "##オ": 529,
      "##ニ": 530,
      "##ク": 531,
      "##の": 532,
      "##て": 533,
      "##購": 534,
      "##し": 535,
      "##择": 536,
      "##困": 537,
      "##难": 538,
      "##症": 539,
      "##№": 540,
      "##シ": 541,
      "##今": 542,
      "##い": 543,
      "##仕": 544,
      "##上": 545,
      "##る": 546,
      "##🔁": 547,
      "##🐽": 548,
      "##👼": 549,
      "##猫": 550,
      "##咪": 551,
      "##帮": 552,
      "##你": 553,
      "##选": 554,
      "##天": 555,
      "##该": 556,
      "##背": 557,
      "##哪": 558,
      "##个": 559,
      "##包": 560,
      "##成": 561,
      "##分": 562,
      "##き": 563,
      "##も": 564,
      "##良": 565,
      "##感": 566,
      "##よ": 567,
      "##😸": 568,
      "##😽": 569,
      "##🐣": 570,
      "##🐒": 571,
      "##🐱": 572,
      "##🐶": 573,
      "##🐢": 574,
      "##🐖": 575,
      "##🐍": 576,
      "##🐅": 577,
      "##🐿": 578,
      "##🐇": 579,
      "##😻": 580,
      "##δ": 581,
      "##}": 582,
      "##ケ": 583,
      "##可": 584,
      "##愛": 585,
      "##$": 586,
      "##好": 587,
      "##然": 588,
      "##練": 589,
      "##り": 590,
      "##チ": 591,
      "##👀": 592,
      "##🍑": 593,
      "##👻": 594,
      "##🏽": 595,
      "##ヒ": 596,
      "##🦄": 597,
      "##„": 598,
      "##気": 599,
      "##持": 600,
      "##ち": 601,
      "##🇸": 602,
      "##ст": 603,
      "##ен": 604,
      "##ов": 605,
      "##ан": 606,
      "##ер": 607,
      "по": 608,
      "##ет": 609,
      "пр": 610,
      "##то": 611,
      "##но": 612,
      "##ал": 613,
      "##ии": 614,
      "на": 615,
      "##ел": 616,
      "##ит": 617,
      "##ил": 618,
      "##ра": 619,
      "##ск": 620,
      "##од": 621,
      "##ом": 622,
      "##ол": 623,
      "##ны": 624,
      "##го": 625,
      "##ат": 626,
      "##ед": 627,
      "##ин": 628,
      "##он": 629,
      "##ем": 630,
      "##ор": 631,
      "##ия": 632,
      "##ар": 633,
      "##ся": 634,
      "##ак": 635,
      "со": 636,
      "##ик": 637,
      "##ои": 638,
      "##ос": 639,
      "##ав": 640,
      "##ие": 641,
      "##ам": 642,
      "##ств": 643,
      "##еи": 644,
      "##ли": 645,
      "##аз": 646,
      "##ек": 647,
      "##им": 648,
      "за": 649,
      "об": 650,
      "##об": 651,
      "не": 652,
      "от": 653,
      "##ру": 654,
      "##от": 655,
      "##тор": 656,
      "##ент": 657,
      "##ас": 658,
      "##ля": 659,
      "##ив": 660,
      "что": 661,
      "из": 662,
      "##ель": 663,
      "20": 664,
      "год": 665,
      "ст": 666,
      "##ает": 667,
      "##ис": 668,
      "##ев": 669,
      "вы": 670,
      "##ла": 671,
      "про": 672,
      "##ир": 673,
      "##ого": 674,
      "ко": 675,
      "##ест": 676,
      "##нои": 677,
      "##их": 678,
      "##уд": 679,
      "##ных": 680,
      "##ич": 681,
      "##ая": 682,
      "##ать": 683,
      "##аль": 684,
      "##ес": 685,
      "это": 686,
      "##ут": 687,
      "##из": 688,
      "бы": 689,
      "##ения": 690,
      "##ци": 691,
      "##ож": 692,
      "201": 693,
      "##оль": 694,
      "пер": 695,
      "##пр": 696,
      "##ост": 697,
      "##ка": 698,
      "рос": 699,
      "##ид": 700,
      "##ран": 701,
      "##ции": 702,
      "ком": 703,
      "##ист": 704,
      "##ур": 705,
      "##ного": 706,
      "##ез": 707,
      "##ок": 708,
      "росс": 709,
      "под": 710,
      "во": 711,
      "##лу": 712,
      "так": 713,
      "пред": 714,
      "##ник": 715,
      "##же": 716,
      "##ую": 717,
      "##ение": 718,
      "##ог": 719,
      "##ован": 720,
      "##ить": 721,
      "св": 722,
      "##ре": 723,
      "##ност": 724,
      "##став": 725,
      "##общ": 726,
      "котор": 727,
      "##ныи": 728,
      "##ные": 729,
      "он": 730,
      "##сл": 731,
      "раз": 732,
      "сообщ": 733,
      "ин": 734,
      "года": 735,
      "##ют": 736,
      "##ным": 737,
      "##ят": 738,
      "##да": 739,
      "россии": 740,
      "ре": 741,
      "##ее": 742,
      "##аб": 743,
      "##ро": 744,
      "##ном": 745,
      "##ль": 746,
      "##ки": 747,
      "од": 748,
      "##уб": 749,
      "как": 750,
      "##ад": 751,
      "##аст": 752,
      "##яв": 753,
      "##сп": 754,
      "##али": 755,
      "##или": 756,
      "##ко": 757,
      "##ала": 758,
      "##иче": 759,
      "кон": 760,
      "сп": 761,
      "##итель": 762,
      "##уп": 763,
      "дол": 764,
      "комп": 765,
      "##кт": 766,
      "до": 767,
      "##ые": 768,
      "##илли": 769,
      "##ход": 770,
      "этом": 771,
      "##еч": 772,
      "##лен": 773,
      "при": 774,
      "##арт": 775,
      "для": 776,
      "##ых": 777,
      "##зв": 778,
      "##ию": 779,
      "»,": 780,
      "##жд": 781,
      "##иц": 782,
      "милли": 783,
      "##его": 784,
      "##ическ": 785,
      "##ыи": 786,
      "буд": 787,
      "##ря": 788,
      "сл": 789,
      "рас": 790,
      "##на": 791,
      "##ании": 792,
      "##каз": 793,
      "ав": 794,
      "##ыв": 795,
      "##ами": 796,
      "был": 797,
      "##рат": 798,
      "##мер": 799,
      "##ении": 800,
      "##er": 801,
      "##ах": 802,
      "посл": 803,
      "##рем": 804,
      "##ект": 805,
      "##ается": 806,
      "году": 807,
      "нов": 808,
      "также": 809,
      "##ания": 810,
      "##ила": 811,
      "##ма": 812,
      "##ства": 813,
      "его": 814,
      "##ми": 815,
      "##рав": 816,
      "##ского": 817,
      "##ется": 818,
      "вс": 819,
      "уч": 820,
      "##оч": 821,
      "пл": 822,
      "кр": 823,
      "##ку": 824,
      "##скои": 825,
      "##иль": 826,
      "##ера": 827,
      "##ство": 828,
      "##луч": 829,
      "##оя": 830,
      "##ности": 831,
      "проц": 832,
      "##иг": 833,
      "##ня": 834,
      "##иров": 835,
      "».": 836,
      "##ствен": 837,
      "##еля": 838,
      "сам": 839,
      "прод": 840,
      "##ег": 841,
      "##ков": 842,
      "оп": 843,
      "ос": 844,
      "##ают": 845,
      "##ная": 846,
      "дв": 847,
      "##убл": 848,
      "##анд": 849,
      "мат": 850,
      "##ина": 851,
      "##ще": 852,
      "##тер": 853,
      "##мен": 854,
      "##ум": 855,
      "раб": 856,
      "заяв": 857,
      "##ун": 858,
      "##гра": 859,
      "##пу": 860,
      "##ров": 861,
      "сер": 862,
      "##ющ": 863,
      "##скии": 864,
      "##ое": 865,
      "врем": 866,
      "##лав": 867,
      "##она": 868,
      "##ке": 869,
      "пол": 870,
      "##ью": 871,
      "процент": 872,
      "прои": 873,
      "##оз": 874,
      "сообщает": 875,
      "##ели": 876,
      "перв": 877,
      "тр": 878,
      "воз": 879,
      "##ное": 880,
      "ан": 881,
      "##ось": 882,
      "##ись": 883,
      "лет": 884,
      "##лю": 885,
      "исп": 886,
      "##аров": 887,
      "##том": 888,
      "мин": 889,
      "зак": 890,
      "##орт": 891,
      "будет": 892,
      "работ": 893,
      "##on": 894,
      "##нов": 895,
      "##пол": 896,
      "##цион": 897,
      "##ион": 898,
      "##ция": 899,
      "##ета": 900,
      "##атель": 901,
      "##бря": 902,
      "##an": 903,
      "##ред": 904,
      "##ех": 905,
      "##in": 906,
      "##есс": 907,
      "##ием": 908,
      "##анов": 909,
      "после": 910,
      "##ры": 911,
      "##ную": 912,
      "мо": 913,
      "ру": 914,
      "ор": 915,
      "##еж": 916,
      "##ится": 917,
      "тем": 918,
      "##руп": 919,
      "##иза": 920,
      "##раз": 921,
      "##лад": 922,
      "##вер": 923,
      "##уж": 924,
      "нач": 925,
      "19": 926,
      "отм": 927,
      "состав": 928,
      "получ": 929,
      "прав": 930,
      "са": 931,
      "долл": 932,
      "##ти": 933,
      "##иш": 934,
      "пров": 935,
      "част": 936,
      "прин": 937,
      "##ась": 938,
      "##ских": 939,
      "##руг": 940,
      "##ание": 941,
      "##раб": 942,
      "объ": 943,
      "##ar": 944,
      "##са": 945,
      "##олько": 946,
      "##бы": 947,
      "ев": 948,
      ").": 949,
      "##ым": 950,
      "эк": 951,
      "стран": 952,
      "##не": 953,
      "200": 954,
      "##ме": 955,
      "время": 956,
      "одн": 957,
      "ар": 958,
      "глав": 959,
      "##en": 960,
      "долларов": 961,
      "##тора": 962,
      "##иру": 963,
      "де": 964,
      "##фор": 965,
      "вер": 966,
      "##елеи": 967,
      "ию": 968,
      "##аг": 969,
      "представ": 970,
      "##инг": 971,
      "##ирован": 972,
      "##циаль": 973,
      "##сяч": 974,
      "ты": 975,
      "ме": 976,
      "##оп": 977,
      "слов": 978,
      "компании": 979,
      "##he": 980,
      "##ень": 981,
      "чем": 982,
      "##цию": 983,
      "сво": 984,
      "##le": 985,
      "##еты": 986,
      "##зов": 987,
      "иг": 988,
      "тысяч": 989,
      "##лек": 990,
      "интер": 991,
      "##прав": 992,
      "бол": 993,
      "##ть": 994,
      "пост": 995,
      "ок": 996,
      "мож": 997,
      "##дел": 998,
      "дан": 999,
      "##та": 1000,
      "мест": 1001,
      "##ери": 1002,
      "##вест": 1003,
      "##ерж": 1004,
      "##рал": 1005,
      "##иб": 1006,
      "\",": 1007,
      "сов": 1008,
      "##ность": 1009,
      "соб": 1010,
      "ка": 1011,
      "##00": 1012,
      "миллиар": 1013,
      "газ": 1014,
      "##ском": 1015,
      "##па": 1016,
      "сред": 1017,
      "бр": 1018,
      "##or": 1019,
      "##ша": 1020,
      "##ена": 1021,
      "ран": 1022,
      "##es": 1023,
      "##овор": 1024,
      "##ган": 1025,
      "саит": 1026,
      "\".": 1027,
      "сто": 1028,
      "##уль": 1029,
      "##бор": 1030,
      "##яз": 1031,
      "реш": 1032,
      "##люч": 1033,
      "том": 1034,
      "##ни": 1035,
      "##ики": 1036,
      "того": 1037,
      "##зд": 1038,
      "##ены": 1039,
      "моск": 1040,
      "##ше": 1041,
      "уст": 1042,
      "##кра": 1043,
      "##му": 1044,
      "сч": 1045,
      "##ус": 1046,
      "##пис": 1047,
      "##пл": 1048,
      "тел": 1049,
      "##уз": 1050,
      "дж": 1051,
      "яв": 1052,
      "боль": 1053,
      "##al": 1054,
      "##гу": 1055,
      "ск": 1056,
      "##ика": 1057,
      "ее": 1058,
      "но": 1059,
      "кол": 1060,
      "кор": 1061,
      "##онов": 1062,
      "##ября": 1063,
      "##стоя": 1064,
      "##тов": 1065,
      "план": 1066,
      "матери": 1067,
      "##ако": 1068,
      "которыи": 1069,
      "##де": 1070,
      "дост": 1071,
      "друг": 1072,
      "вид": 1073,
      "суд": 1074,
      "##ными": 1075,
      "было": 1076,
      "##кои": 1077,
      "the": 1078,
      "однако": 1079,
      "##икан": 1080,
      "##ец": 1081,
      "явля": 1082,
      "бан": 1083,
      "ист": 1084,
      "##ению": 1085,
      "перед": 1086,
      "евро": 1087,
      "рубл": 1088,
      "##вар": 1089,
      "##алось": 1090,
      "##ять": 1091,
      "их": 1092,
      "##че": 1093,
      "##oo": 1094,
      "участ": 1095,
      "##уч": 1096,
      "##ира": 1097,
      "орган": 1098,
      "рублеи": 1099,
      "2015": 1100,
      "словам": 1101,
      "пом": 1102,
      "гор": 1103,
      "##ины": 1104,
      "##гл": 1105,
      "акт": 1106,
      "),": 1107,
      "заявил": 1108,
      "более": 1109,
      "##еб": 1110,
      "##ская": 1111,
      "долж": 1112,
      "##реб": 1113,
      "##елов": 1114,
      "##неи": 1115,
      "##але": 1116,
      "ак": 1117,
      "проект": 1118,
      "##at": 1119,
      "##ские": 1120,
      "фин": 1121,
      "##алы": 1122,
      "которые": 1123,
      "##ул": 1124,
      "амер": 1125,
      "##ульт": 1126,
      "то": 1127,
      "поль": 1128,
      "##ников": 1129,
      "##ласт": 1130,
      "сша": 1131,
      "ранее": 1132,
      "рек": 1133,
      "свои": 1134,
      "##ался": 1135,
      "##ента": 1136,
      "##вет": 1137,
      "зав": 1138,
      "##аться": 1139,
      "##нач": 1140,
      "рез": 1141,
      "тур": 1142,
      "##оло": 1143,
      "изд": 1144,
      "созд": 1145,
      "филь": 1146,
      "укра": 1147,
      "##ления": 1148,
      "##ора": 1149,
      "##ce": 1150,
      "##сов": 1151,
      "гос": 1152,
      "##ри": 1153,
      "##руд": 1154,
      "процентов": 1155,
      "пов": 1156,
      "##it": 1157,
      "##нии": 1158,
      "##ости": 1159,
      "##изн": 1160,
      "были": 1161,
      "оф": 1162,
      "##иков": 1163,
      "##ущ": 1164,
      "##ана": 1165,
      "см": 1166,
      "уд": 1167,
      "##ающ": 1168,
      "##след": 1169,
      "##ним": 1170,
      "конц": 1171,
      "##еть": 1172,
      "##ант": 1173,
      "##ало": 1174,
      "уже": 1175,
      "американ": 1176,
      "##сы": 1177,
      "инфор": 1178,
      "послед": 1179,
      "межд": 1180,
      "##ино": 1181,
      "лю": 1182,
      "##ился": 1183,
      "##пер": 1184,
      "##ле": 1185,
      "груп": 1186,
      "зан": 1187,
      "челов": 1188,
      "она": 1189,
      "през": 1190,
      "##ата": 1191,
      "ма": 1192,
      "конт": 1193,
      "##ники": 1194,
      "влад": 1195,
      "оч": 1196,
      "дел": 1197,
      "они": 1198,
      "компания": 1199,
      "отмет": 1200,
      "информа": 1201,
      "пос": 1202,
      "произв": 1203,
      "была": 1204,
      "##цен": 1205,
      "чер": 1206,
      "##шии": 1207,
      "##работ": 1208,
      "##ующ": 1209,
      "##сказ": 1210,
      "все": 1211,
      "материалы": 1212,
      "##ото": 1213,
      "##яс": 1214,
      "##иск": 1215,
      "прот": 1216,
      "##енд": 1217,
      "##оме": 1218,
      "##еиств": 1219,
      "##ине": 1220,
      "втор": 1221,
      "##стве": 1222,
      "2016": 1223,
      "##ступ": 1224,
      "презид": 1225,
      "2013": 1226,
      "##ух": 1227,
      "неск": 1228,
      "миллионов": 1229,
      "нед": 1230,
      "человек": 1231,
      "##раж": 1232,
      "чемп": 1233,
      "##ло": 1234,
      "##ещ": 1235,
      "##ter": 1236,
      "наз": 1237,
      "им": 1238,
      "след": 1239,
      "минист": 1240,
      "зам": 1241,
      "ост": 1242,
      "##ощ": 1243,
      "##ования": 1244,
      "2014": 1245,
      "связ": 1246,
      "аг": 1247,
      "2012": 1248,
      "##ro": 1249,
      "прив": 1250,
      "##пы": 1251,
      "##ic": 1252,
      "##прос": 1253,
      "извест": 1254,
      "10": 1255,
      "ян": 1256,
      "вед": 1257,
      "##истем": 1258,
      "может": 1259,
      "является": 1260,
      "или": 1261,
      "##луж": 1262,
      "##аж": 1263,
      "систем": 1264,
      "сот": 1265,
      "около": 1266,
      "ув": 1267,
      "отк": 1268,
      "теме": 1269,
      "##ими": 1270,
      "ис": 1271,
      "##лож": 1272,
      "##ках": 1273,
      "##ук": 1274,
      "##ались": 1275,
      "##il": 1276,
      "процента": 1277,
      "этого": 1278,
      "##урн": 1279,
      "март": 1280,
      "##ита": 1281,
      "еще": 1282,
      "только": 1283,
      "##емь": 1284,
      "##лекс": 1285,
      "тех": 1286,
      "##оны": 1287,
      "##ниц": 1288,
      "##онд": 1289,
      "журн": 1290,
      "исполь": 1291,
      ".«": 1292,
      "иск": 1293,
      "##иа": 1294,
      "##держ": 1295,
      "##утб": 1296,
      "доб": 1297,
      "сбор": 1298,
      "основ": 1299,
      "сент": 1300,
      "пок": 1301,
      "##лам": 1302,
      "эксп": 1303,
      "##есп": 1304,
      "##лич": 1305,
      "мар": 1306,
      "##ициаль": 1307,
      "пользов": 1308,
      "пор": 1309,
      "будут": 1310,
      "##мест": 1311,
      "футб": 1312,
      "гол": 1313,
      "же": 1314,
      "##ош": 1315,
      "15": 1316,
      "город": 1317,
      "чемпион": 1318,
      "##алист": 1319,
      "мог": 1320,
      "ры": 1321,
      "те": 1322,
      "мед": 1323,
      "окт": 1324,
      "вз": 1325,
      "##мы": 1326,
      "организа": 1327,
      "##ерш": 1328,
      "12": 1329,
      "##иеи": 1330,
      "без": 1331,
      "появ": 1332,
      "поб": 1333,
      "официаль": 1334,
      "##st": 1335,
      "кроме": 1336,
      "чис": 1337,
      "##ста": 1338,
      "##лог": 1339,
      "сотруд": 1340,
      "сдел": 1341,
      "дом": 1342,
      "тер": 1343,
      "##ших": 1344,
      "пар": 1345,
      "показ": 1346,
      "##енных": 1347,
      "карт": 1348,
      "агент": 1349,
      "дек": 1350,
      "россия": 1351,
      "##ника": 1352,
      "##лет": 1353,
      "прим": 1354,
      "##сии": 1355,
      "саите": 1356,
      "москв": 1357,
      "прош": 1358,
      "разв": 1359,
      "##обр": 1360,
      "##ги": 1361,
      "производ": 1362,
      "##ара": 1363,
      "муз": 1364,
      "##сли": 1365,
      "##ление": 1366,
      "над": 1367,
      "2011": 1368,
      "##мож": 1369,
      "##ено": 1370,
      "пресс": 1371,
      "##ате": 1372,
      "##точ": 1373,
      "##дов": 1374,
      "##акт": 1375,
      "##еры": 1376,
      "фор": 1377,
      "##et": 1378,
      "больш": 1379,
      "отмеч": 1380,
      "##ило": 1381,
      "миллиарда": 1382,
      "январ": 1383,
      "##итан": 1384,
      "рассказ": 1385,
      "##вин": 1386,
      "назв": 1387,
      "##ителя": 1388,
      "##ou": 1389,
      "##етров": 1390,
      "##ба": 1391,
      "мод": 1392,
      "##коном": 1393,
      "наход": 1394,
      "апр": 1395,
      "выступ": 1396,
      "##ком": 1397,
      "алекс": 1398,
      "результ": 1399,
      "вк": 1400,
      "##гда": 1401,
      "##am": 1402,
      "##дж": 1403,
      "##ителеи": 1404,
      "виде": 1405,
      "##торая": 1406,
      "ноя": 1407,
      "авгу": 1408,
      "##ением": 1409,
      "##ему": 1410,
      "##асс": 1411,
      "кан": 1412,
      "##иться": 1413,
      "постав": 1414,
      "образ": 1415,
      "говор": 1416,
      "деиств": 1417,
      "декаб": 1418,
      "чтобы": 1419,
      "спорт": 1420,
      "ра": 1421,
      "##илась": 1422,
      "спе": 1423,
      "фран": 1424,
      "##ыш": 1425,
      "##цев": 1426,
      "пока": 1427,
      "тор": 1428,
      "##грам": 1429,
      "##нет": 1430,
      "##сто": 1431,
      "##глас": 1432,
      "финан": 1433,
      "несколько": 1434,
      "ад": 1435,
      "##лаг": 1436,
      "##чи": 1437,
      "оказ": 1438,
      "су": 1439,
      "команд": 1440,
      "против": 1441,
      "##нут": 1442,
      "два": 1443,
      "когда": 1444,
      "##ова": 1445,
      "##ерт": 1446,
      "##алась": 1447,
      "выпу": 1448,
      "сообщается": 1449,
      "##удар": 1450,
      "##рок": 1451,
      "##мот": 1452,
      "реклам": 1453,
      "учен": 1454,
      "ник": 1455,
      "возмож": 1456,
      "програм": 1457,
      "##ирек": 1458,
      "исслед": 1459,
      "пользоват": 1460,
      "##уш": 1461,
      "##ляет": 1462,
      "##ость": 1463,
      "миллиона": 1464,
      "##иж": 1465,
      "##еров": 1466,
      "клу": 1467,
      "которая": 1468,
      "##иф": 1469,
      "цент": 1470,
      "фото": 1471,
      "поли": 1472,
      "##ители": 1473,
      "##as": 1474,
      "разработ": 1475,
      "##стр": 1476,
      "тран": 1477,
      "государ": 1478,
      "эт": 1479,
      "##ясн": 1480,
      "шт": 1481,
      "##ному": 1482,
      "30": 1483,
      "фев": 1484,
      "пут": 1485,
      "##олн": 1486,
      "##енты": 1487,
      "##вед": 1488,
      "пот": 1489,
      "##стоящ": 1490,
      "##ew": 1491,
      "октября": 1492,
      "поч": 1493,
      "жен": 1494,
      "##лект": 1495,
      "док": 1496,
      "день": 1497,
      "##рос": 1498,
      "##ласти": 1499,
      "##ину": 1500,
      "##аем": 1501,
      "кра": 1502,
      "один": 1503,
      "июля": 1504,
      "феврал": 1505,
      "аль": 1506,
      "##ящ": 1507,
      "##полн": 1508,
      "##альнои": 1509,
      "фед": 1510,
      "##оне": 1511,
      "##ству": 1512,
      "##ковод": 1513,
      "мы": 1514,
      "##ились": 1515,
      "##аются": 1516,
      "##исс": 1517,
      "##га": 1518,
      "##ца": 1519,
      "июня": 1520,
      "##рех": 1521,
      "13": 1522,
      "##сыл": 1523,
      "опубл": 1524,
      "случ": 1525,
      "имен": 1526,
      "сентября": 1527,
      "круп": 1528,
      "##ed": 1529,
      "руковод": 1530,
      "##ским": 1531,
      "кар": 1532,
      "##ян": 1533,
      "счет": 1534,
      "гра": 1535,
      "##аты": 1536,
      "##ести": 1537,
      "сум": 1538,
      "если": 1539,
      "##еп": 1540,
      "##шего": 1541,
      "общ": 1542,
      "##гов": 1543,
      "11": 1544,
      "данным": 1545,
      "##ером": 1546,
      "побед": 1547,
      "стал": 1548,
      "заним": 1549,
      "отно": 1550,
      "18": 1551,
      "гер": 1552,
      "##еннои": 1553,
      "мен": 1554,
      "##el": 1555,
      "соглас": 1556,
      "##ди": 1557,
      "самол": 1558,
      "неф": 1559,
      "##твер": 1560,
      "матч": 1561,
      "##ются": 1562,
      "##ият": 1563,
      "эконом": 1564,
      "служ": 1565,
      "##ol": 1566,
      "всего": 1567,
      "которых": 1568,
      "марта": 1569,
      "25": 1570,
      "##нар": 1571,
      "##ерб": 1572,
      "##om": 1573,
      "##is": 1574,
      "вел": 1575,
      "реж": 1576,
      "##ование": 1577,
      "16": 1578,
      "счит": 1579,
      "14": 1580,
      "##ние": 1581,
      "##енные": 1582,
      "жив": 1583,
      "пят": 1584,
      "##ыт": 1585,
      "зап": 1586,
      "откры": 1587,
      "помощ": 1588,
      "##ени": 1589,
      "мак": 1590,
      "##дет": 1591,
      "##етов": 1592,
      "москов": 1593,
      "мая": 1594,
      "прич": 1595,
      "настоящ": 1596,
      "британ": 1597,
      "миллиардов": 1598,
      "выс": 1599,
      "предлож": 1600,
      "установ": 1601,
      "ссыл": 1602,
      "##re": 1603,
      "фильм": 1604,
      "апреля": 1605,
      "сан": 1606,
      "сек": 1607,
      "актив": 1608,
      "можно": 1609,
      "зв": 1610,
      "августа": 1611,
      "четы": 1612,
      "##алог": 1613,
      "объяв": 1614,
      "##ращ": 1615,
      "##пред": 1616,
      "рак": 1617,
      "##оде": 1618,
      "три": 1619,
      "интернет": 1620,
      "планиру": 1621,
      "##ляр": 1622,
      "##ети": 1623,
      "неи": 1624,
      "стан": 1625,
      "запр": 1626,
      "##имо": 1627,
      "нем": 1628,
      "##лив": 1629,
      "января": 1630,
      "место": 1631,
      "пиш": 1632,
      "кв": 1633,
      "дирек": 1634,
      "частности": 1635,
      "##ing": 1636,
      "футбол": 1637,
      "in": 1638,
      "сказ": 1639,
      "##ожд": 1640,
      "позв": 1641,
      "##прият": 1642,
      "правитель": 1643,
      "которои": 1644,
      "##за": 1645,
      "вст": 1646,
      "управ": 1647,
      "ноября": 1648,
      "рф": 1649,
      "##ям": 1650,
      "##вис": 1651,
      "отказ": 1652,
      "решение": 1653,
      "рам": 1654,
      "##ром": 1655,
      "##ических": 1656,
      "стор": 1657,
      "##олж": 1658,
      "##енно": 1659,
      "обор": 1660,
      "вос": 1661,
      "##ace": 1662,
      "##арод": 1663,
      "##нер": 1664,
      "##ion": 1665,
      "##ике": 1666,
      "сообщил": 1667,
      "двух": 1668,
      "использ": 1669,
      "##ad": 1670,
      "##ох": 1671,
      "президент": 1672,
      "декабря": 1673,
      "##ировать": 1674,
      "финансов": 1675,
      "##цы": 1676,
      "опера": 1677,
      "рост": 1678,
      "продаж": 1679,
      "##кур": 1680,
      "мира": 1681,
      "уг": 1682,
      "##шеи": 1683,
      "через": 1684,
      "сы": 1685,
      "##ународ": 1686,
      "##ере": 1687,
      "заб": 1688,
      "##ну": 1689,
      "##бре": 1690,
      "международ": 1691,
      "кам": 1692,
      "них": 1693,
      "отметил": 1694,
      "где": 1695,
      "кур": 1696,
      "оцен": 1697,
      "необ": 1698,
      "ген": 1699,
      "состоя": 1700,
      "обнар": 1701,
      "##мп": 1702,
      "##ального": 1703,
      "страны": 1704,
      "бел": 1705,
      "расс": 1706,
      "призн": 1707,
      "нас": 1708,
      "##иту": 1709,
      "соот": 1710,
      "##сс": 1711,
      "между": 1712,
      "17": 1713,
      "дев": 1714,
      "##ода": 1715,
      "быть": 1716,
      "##ch": 1717,
      "руб": 1718,
      "сеи": 1719,
      "го": 1720,
      "кос": 1721,
      "##ете": 1722,
      "пишет": 1723,
      "##ическои": 1724,
      "нап": 1725,
      "##ге": 1726,
      "порт": 1727,
      "мом": 1728,
      "сн": 1729,
      "могут": 1730,
      "позвол": 1731,
      "инд": 1732,
      "##ществ": 1733,
      "##ывает": 1734,
      "##оев": 1735,
      "##ано": 1736,
      "рын": 1737,
      "себ": 1738,
      "##езд": 1739,
      "##нению": 1740,
      "##ити": 1741,
      "##граф": 1742,
      "new": 1743,
      "лиш": 1744,
      "##атив": 1745,
      "случа": 1746,
      "муж": 1747,
      "выход": 1748,
      "свою": 1749,
      "##овои": 1750,
      "рел": 1751,
      "ред": 1752,
      "рад": 1753,
      "##us": 1754,
      "стать": 1755,
      "ссылкои": 1756,
      "нек": 1757,
      "##енного": 1758,
      "22": 1759,
      "чет": 1760,
      "предпол": 1761,
      "##су": 1762,
      "стро": 1763,
      "бли": 1764,
      "ито": 1765,
      "быв": 1766,
      "февраля": 1767,
      "мол": 1768,
      "2010": 1769,
      "зат": 1770,
      "##уют": 1771,
      "##час": 1772,
      "бю": 1773,
      "автом": 1774,
      "музы": 1775,
      "##еш": 1776,
      "владим": 1777,
      "мор": 1778,
      "##ья": 1779,
      "24": 1780,
      "##ерк": 1781,
      "##него": 1782,
      "которого": 1783,
      "##аны": 1784,
      "##овать": 1785,
      "кил": 1786,
      "21": 1787,
      "##жа": 1788,
      "обвин": 1789,
      "поддерж": 1790,
      "встре": 1791,
      "соответ": 1792,
      "##огда": 1793,
      "##яж": 1794,
      "##руш": 1795,
      "провед": 1796,
      "стоим": 1797,
      "##ерс": 1798,
      "##един": 1799,
      "источ": 1800,
      "##лем": 1801,
      "##ительно": 1802,
      "##мент": 1803,
      "##альныи": 1804,
      "котором": 1805,
      "рол": 1806,
      "##аш": 1807,
      "##ического": 1808,
      "меся": 1809,
      "луч": 1810,
      "##рии": 1811,
      "##лении": 1812,
      "произ": 1813,
      "обнаруж": 1814,
      "сеичас": 1815,
      "##гла": 1816,
      "род": 1817,
      "##ностью": 1818,
      "сервис": 1819,
      "##мещ": 1820,
      "поп": 1821,
      "премь": 1822,
      "199": 1823,
      "приня": 1824,
      "ведом": 1825,
      "четвер": 1826,
      "»)": 1827,
      "дет": 1828,
      "оли": 1829,
      "пет": 1830,
      "##слов": 1831,
      "##шие": 1832,
      "истор": 1833,
      "национ": 1834,
      "подпис": 1835,
      "##ook": 1836,
      "рамках": 1837,
      "##инов": 1838,
      "##особ": 1839,
      "лиц": 1840,
      "час": 1841,
      "исполн": 1842,
      "име": 1843,
      "##ыч": 1844,
      "добав": 1845,
      "##ателя": 1846,
      "##ире": 1847,
      "##ева": 1848,
      "александ": 1849,
      "##уры": 1850,
      "##un": 1851,
      "кред": 1852,
      "первыи": 1853,
      "##рыв": 1854,
      "других": 1855,
      "организации": 1856,
      "##ent": 1857,
      "##ура": 1858,
      "телек": 1859,
      "наб": 1860,
      "бар": 1861,
      "вмест": 1862,
      "уточ": 1863,
      "##яд": 1864,
      "##ятель": 1865,
      "##ска": 1866,
      "##енныи": 1867,
      "поступ": 1868,
      "зар": 1869,
      "деся": 1870,
      "бор": 1871,
      "вв": 1872,
      "доступ": 1873,
      "##енко": 1874,
      "контра": 1875,
      "##олов": 1876,
      "выш": 1877,
      "##еф": 1878,
      "акции": 1879,
      "ап": 1880,
      "##ay": 1881,
      "глава": 1882,
      "мет": 1883,
      "кино": 1884,
      "##анию": 1885,
      "люб": 1886,
      "олимп": 1887,
      "поз": 1888,
      "вод": 1889,
      "автор": 1890,
      "числе": 1891,
      "ог": 1892,
      "намер": 1893,
      "##атр": 1894,
      "##глаш": 1895,
      "st": 1896,
      "##рать": 1897,
      "отнош": 1898,
      "сил": 1899,
      "настоящее": 1900,
      "вал": 1901,
      "##сть": 1902,
      "ал": 1903,
      "##тории": 1904,
      "сев": 1905,
      "этот": 1906,
      "работы": 1907,
      "ат": 1908,
      "европ": 1909,
      "##рои": 1910,
      "##ятся": 1911,
      "уп": 1912,
      "##ации": 1913,
      "##ir": 1914,
      "связи": 1915,
      "журналист": 1916,
      "##ализ": 1917,
      "##нее": 1918,
      "##im": 1919,
      "##онч": 1920,
      "##ику": 1921,
      "конкур": 1922,
      "тек": 1923,
      "##ыми": 1924,
      "##щит": 1925,
      "вопрос": 1926,
      "кн": 1927,
      "продолж": 1928,
      "банк": 1929,
      "включ": 1930,
      "ученые": 1931,
      "##елич": 1932,
      "проекта": 1933,
      "заключ": 1934,
      "треб": 1935,
      "уб": 1936,
      "цен": 1937,
      "##бу": 1938,
      "эта": 1939,
      "##оно": 1940,
      "трен": 1941,
      "##икован": 1942,
      "запу": 1943,
      "косм": 1944,
      "23": 1945,
      "##емон": 1946,
      "теме1": 1947,
      "среди": 1948,
      "ответ": 1949,
      "маг": 1950,
      "ни": 1951,
      "стало": 1952,
      "##ail": 1953,
      "##оруж": 1954,
      "##ством": 1955,
      "##альных": 1956,
      "увелич": 1957,
      "##ота": 1958,
      "##ип": 1959,
      "опубликован": 1960,
      "новости": 1961,
      "заверш": 1962,
      "ему": 1963,
      "##id": 1964,
      "ит": 1965,
      "студ": 1966,
      "необход": 1967,
      "##овании": 1968,
      "##ac": 1969,
      "##ентов": 1970,
      "##лены": 1971,
      "контракт": 1972,
      "состо": 1973,
      "##плат": 1974,
      "##ман": 1975,
      "бюдж": 1976,
      "##илось": 1977,
      "##раф": 1978,
      "услов": 1979,
      "##ио": 1980,
      "напис": 1981,
      "##отов": 1982,
      "да": 1983,
      "мер": 1984,
      "##мотр": 1985,
      "ном": 1986,
      "сез": 1987,
      "начале": 1988,
      "говорится": 1989,
      "момент": 1990,
      "фун": 1991,
      "##ag": 1992,
      "направ": 1993,
      "маш": 1994,
      "##руч": 1995,
      "своеи": 1996,
      "каче": 1997,
      "зд": 1998,
      "##роб": 1999,
      "##os": 2000,
      "зн": 2001,
      "##еред": 2002,
      "плат": 2003,
      "произош": 2004,
      "ож": 2005,
      "##book": 2006,
      "face": 2007,
      "##мин": 2008,
      "треть": 2009,
      "игра": 2010,
      "##енс": 2011,
      "##рон": 2012,
      "##фер": 2013,
      "##сед": 2014,
      "проб": 2015,
      "инвест": 2016,
      "##ot": 2017,
      "кл": 2018,
      "рег": 2019,
      "прошл": 2020,
      "редак": 2021,
      "терри": 2022,
      "женщ": 2023,
      "##нем": 2024,
      "##олог": 2025,
      "этои": 2026,
      "конце": 2027,
      "##леж": 2028,
      "##ице": 2029,
      "##циеи": 2030,
      "##атели": 2031,
      "26": 2032,
      "##иги": 2033,
      "28": 2034,
      "50": 2035,
      "часть": 2036,
      "директор": 2037,
      "пон": 2038,
      "ун": 2039,
      "facebook": 2040,
      "попу": 2041,
      "##гор": 2042,
      "собствен": 2043,
      "специ": 2044,
      "##отор": 2045,
      "##ia": 2046,
      "##сь": 2047,
      "докум": 2048,
      "трех": 2049,
      "объем": 2050,
      "##парат": 2051,
      "развит": 2052,
      "27": 2053,
      "тогда": 2054,
      "##рам": 2055,
      "составляет": 2056,
      "уров": 2057,
      "##ателеи": 2058,
      "указ": 2059,
      "##аком": 2060,
      "сборнои": 2061,
      "информации": 2062,
      "goo": 2063,
      "мно": 2064,
      "способ": 2065,
      "группы": 2066,
      "есть": 2067,
      "##пров": 2068,
      "прис": 2069,
      "крас": 2070,
      "прем": 2071,
      "##ела": 2072,
      "re": 2073,
      "##ское": 2074,
      "россииских": 2075,
      "известно": 2076,
      "согласно": 2077,
      "участие": 2078,
      "провод": 2079,
      "##нул": 2080,
      "телекан": 2081,
      "##gle": 2082,
      "размер": 2083,
      "##бом": 2084,
      "##идет": 2085,
      "##ечение": 2086,
      "##изнес": 2087,
      "торгов": 2088,
      "news": 2089,
      "министер": 2090,
      "##елем": 2091,
      "покуп": 2092,
      "релиз": 2093,
      "##те": 2094,
      "##руж": 2095,
      "скор": 2096,
      "полу": 2097,
      "игры": 2098,
      "велик": 2099,
      "вооруж": 2100,
      "кита": 2101,
      "an": 2102,
      "##oc": 2103,
      "##еле": 2104,
      "##рукт": 2105,
      "сми": 2106,
      "##ометров": 2107,
      "ави": 2108,
      "тысячи": 2109,
      "##ума": 2110,
      "ли": 2111,
      "нет": 2112,
      "##ur": 2113,
      "версии": 2114,
      "вес": 2115,
      "кораб": 2116,
      "куб": 2117,
      "##алов": 2118,
      "парт": 2119,
      "него": 2120,
      "некотор": 2121,
      "бизнес": 2122,
      "смог": 2123,
      "прев": 2124,
      "фотограф": 2125,
      "ус": 2126,
      "##них": 2127,
      "режисс": 2128,
      "измен": 2129,
      "##ряд": 2130,
      "##предел": 2131,
      "назыв": 2132,
      "ожид": 2133,
      "элект": 2134,
      "##мит": 2135,
      "##фф": 2136,
      "подч": 2137,
      "результате": 2138,
      "##ow": 2139,
      "деп": 2140,
      "рассказал": 2141,
      "ходе": 2142,
      "##раст": 2143,
      "приз": 2144,
      "всех": 2145,
      "google": 2146,
      "полит": 2147,
      "##ивает": 2148,
      "издание": 2149,
      "##ждан": 2150,
      "больше": 2151,
      "риа": 2152,
      "##ует": 2153,
      "перев": 2154,
      "##ig": 2155,
      "кат": 2156,
      "##инои": 2157,
      "##нок": 2158,
      "стала": 2159,
      "##изации": 2160,
      "выстав": 2161,
      "##адлеж": 2162,
      "сказал": 2163,
      "напр": 2164,
      "украин": 2165,
      "ед": 2166,
      "##pp": 2167,
      "ленты": 2168,
      "##ув": 2169,
      "##шим": 2170,
      "живот": 2171,
      "принадлеж": 2172,
      "нез": 2173,
      "агентство": 2174,
      "tw": 2175,
      "хот": 2176,
      "##готов": 2177,
      "образом": 2178,
      "граждан": 2179,
      "кажд": 2180,
      "29": 2181,
      "вход": 2182,
      "даль": 2183,
      "##ществен": 2184,
      "100": 2185,
      "##ких": 2186,
      "музык": 2187,
      "худ": 2188,
      "##ому": 2189,
      "пери": 2190,
      "сб": 2191,
      "##ess": 2192,
      "удалось": 2193,
      "зем": 2194,
      "министр": 2195,
      "популяр": 2196,
      "сод": 2197,
      "дог": 2198,
      "шест": 2199,
      "##иции": 2200,
      "другие": 2201,
      "минут": 2202,
      "автомоб": 2203,
      "знач": 2204,
      "сети": 2205,
      "##еру": 2206,
      "прос": 2207,
      "социаль": 2208,
      "##руз": 2209,
      "проход": 2210,
      "времени": 2211,
      "кли": 2212,
      "прест": 2213,
      "##ard": 2214,
      "использов": 2215,
      "отд": 2216,
      "высок": 2217,
      "сним": 2218,
      "##иях": 2219,
      "очеред": 2220,
      "системы": 2221,
      "баз": 2222,
      "##скую": 2223,
      "##остав": 2224,
      "##ектив": 2225,
      "of": 2226,
      "##иса": 2227,
      "##порт": 2228,
      "##ях": 2229,
      "##ток": 2230,
      "передает": 2231,
      "##екс": 2232,
      "##рах": 2233,
      "крупнеи": 2234,
      "мнению": 2235,
      "##лять": 2236,
      "наруш": 2237,
      "соответств": 2238,
      "кредит": 2239,
      "мас": 2240,
      "пог": 2241,
      "россииского": 2242,
      "##ub": 2243,
      "соверш": 2244,
      "своих": 2245,
      "##уст": 2246,
      "##итета": 2247,
      "##итинг": 2248,
      "распол": 2249,
      "групп": 2250,
      "(«": 2251,
      "##ари": 2252,
      "осн": 2253,
      "получил": 2254,
      "украины": 2255,
      "люд": 2256,
      "##иев": 2257,
      "##ивать": 2258,
      "мужч": 2259,
      "##ербур": 2260,
      "области": 2261,
      "петербур": 2262,
      "##пон": 2263,
      "pr": 2264,
      "##ябре": 2265,
      "своем": 2266,
      "предполаг": 2267,
      "##нолог": 2268,
      "##тору": 2269,
      "количе": 2270,
      "себя": 2271,
      "бал": 2272,
      "устрои": 2273,
      "дор": 2274,
      "лид": 2275,
      "потреб": 2276,
      "регу": 2277,
      "подчерк": 2278,
      "север": 2279,
      "тон": 2280,
      "отправ": 2281,
      "президента": 2282,
      "летнии": 2283,
      "##овал": 2284,
      "2009": 2285,
      "именно": 2286,
      "бер": 2287,
      "##гам": 2288,
      "арт": 2289,
      "альбом": 2290,
      "соглаш": 2291,
      "новыи": 2292,
      "следующ": 2293,
      "усп": 2294,
      "##рет": 2295,
      "##скому": 2296,
      "##рес": 2297,
      "##анием": 2298,
      "та": 2299,
      "##тои": 2300,
      "twit": 2301,
      "там": 2302,
      "##прост": 2303,
      "##пит": 2304,
      "миров": 2305,
      "##шая": 2306,
      "выб": 2307,
      "вместе": 2308,
      "аэ": 2309,
      "##ически": 2310,
      "газета": 2311,
      "##шем": 2312,
      "специаль": 2313,
      "стоимость": 2314,
      "европеи": 2315,
      "точ": 2316,
      "задерж": 2317,
      "утвер": 2318,
      "##ранич": 2319,
      "срав": 2320,
      "##ально": 2321,
      "владимир": 2322,
      "вост": 2323,
      "дмит": 2324,
      "лег": 2325,
      "##ач": 2326,
      "зад": 2327,
      "жел": 2328,
      "##бе": 2329,
      "право": 2330,
      "дополн": 2331,
      "инст": 2332,
      "должен": 2333,
      "премьер": 2334,
      "тв": 2335,
      "слож": 2336,
      "тасс": 2337,
      "эти": 2338,
      "однои": 2339,
      "содерж": 2340,
      "##тон": 2341,
      "приш": 2342,
      "##рев": 2343,
      "четыре": 2344,
      "власти": 2345,
      "пес": 2346,
      "таким": 2347,
      "россиискои": 2348,
      "twitter": 2349,
      "видео": 2350,
      "государствен": 2351,
      "обяз": 2352,
      "##чит": 2353,
      "##кции": 2354,
      "аппарат": 2355,
      "нор": 2356,
      "одного": 2357,
      "##ицы": 2358,
      "##ические": 2359,
      "##лок": 2360,
      "ант": 2361,
      "ден": 2362,
      "##эн": 2363,
      "интерф": 2364,
      "обесп": 2365,
      "второи": 2366,
      "com": 2367,
      "впер": 2368,
      "##ph": 2369,
      "ситу": 2370,
      "тра": 2371,
      "##атов": 2372,
      "боев": 2373,
      "чемпионата": 2374,
      "качестве": 2375,
      "##хран": 2376,
      "представитель": 2377,
      "##оров": 2378,
      "##ард": 2379,
      "обрат": 2380,
      "##тому": 2381,
      "почти": 2382,
      "##спорт": 2383,
      "##пром": 2384,
      "##арии": 2385,
      "должны": 2386,
      "вн": 2387,
      "готов": 2388,
      "##ищ": 2389,
      "##смен": 2390,
      "прог": 2391,
      "отмечает": 2392,
      "мног": 2393,
      "возд": 2394,
      "случае": 2395,
      "##альные": 2396,
      "города": 2397,
      "команды": 2398,
      "издания": 2399,
      "затем": 2400,
      "суп": 2401,
      "##скор": 2402,
      "ch": 2403,
      "##орд": 2404,
      "москве": 2405,
      "федер": 2406,
      "##ировал": 2407,
      "анд": 2408,
      "течение": 2409,
      "##ланд": 2410,
      "##чь": 2411,
      "кварт": 2412,
      "великобр": 2413,
      "##сон": 2414,
      "серии": 2415,
      "##ниж": 2416,
      "технолог": 2417,
      "сем": 2418,
      "проф": 2419,
      "реитинг": 2420,
      "##неф": 2421,
      "открыт": 2422,
      "ряд": 2423,
      "размещ": 2424,
      "рус": 2425,
      "пре": 2426,
      "##оду": 2427,
      "нес": 2428,
      "##простран": 2429,
      "хол": 2430,
      "##ft": 2431,
      "нар": 2432,
      "##се": 2433,
      "приобр": 2434,
      "проис": 2435,
      "ближа": 2436,
      "ближаиш": 2437,
      "2008": 2438,
      "лонд": 2439,
      "представители": 2440,
      "##лена": 2441,
      "много": 2442,
      "топ": 2443,
      "япон": 2444,
      "##ками": 2445,
      "##ял": 2446,
      "публ": 2447,
      "пять": 2448,
      "##ащ": 2449,
      "##ображ": 2450,
      "пере": 2451,
      "лишь": 2452,
      "худож": 2453,
      "##ra": 2454,
      "предостав": 2455,
      "контр": 2456,
      "##истра": 2457,
      "особ": 2458,
      "совет": 2459,
      "футболь": 2460,
      "35": 2461,
      "##ut": 2462,
      "которое": 2463,
      "##ницу": 2464,
      "валют": 2465,
      "40": 2466,
      "прил": 2467,
      "россиян": 2468,
      "вои": 2469,
      "мон": 2470,
      "франц": 2471,
      "александр": 2472,
      "сою": 2473,
      "станет": 2474,
      "распростран": 2475,
      "англ": 2476,
      "рубля": 2477,
      "##неш": 2478,
      "куп": 2479,
      "##пании": 2480,
      "##енз": 2481,
      "нового": 2482,
      "пользователеи": 2483,
      "you": 2484,
      "##бит": 2485,
      "31": 2486,
      "находится": 2487,
      "стали": 2488,
      "##град": 2489,
      "ракет": 2490,
      "пис": 2491,
      "сцен": 2492,
      "##имер": 2493,
      "##ировали": 2494,
      "специалист": 2495,
      "великобрит": 2496,
      "##пора": 2497,
      "потер": 2498,
      "##реш": 2499,
      "ром": 2500,
      "срок": 2501,
      "##лиц": 2502,
      "испыт": 2503,
      "интерфак": 2504,
      "##вые": 2505,
      "##истов": 2506,
      "деятель": 2507,
      "##юс": 2508,
      "защит": 2509,
      "выпуск": 2510,
      "итогам": 2511,
      "##ствия": 2512,
      "экран": 2513,
      "встреч": 2514,
      "подтвер": 2515,
      "россиискии": 2516,
      "очень": 2517,
      "бес": 2518,
      "став": 2519,
      "строитель": 2520,
      "##год": 2521,
      "##овых": 2522,
      "игрок": 2523,
      "закры": 2524,
      "территории": 2525,
      "би": 2526,
      "дав": 2527,
      "начала": 2528,
      "москвы": 2529,
      "сообщалось": 2530,
      "звезд": 2531,
      "генер": 2532,
      "поиск": 2533,
      "банка": 2534,
      "назнач": 2535,
      "новои": 2536,
      "своего": 2537,
      "спортсмен": 2538,
      "период": 2539,
      "впервые": 2540,
      "гран": 2541,
      "##ическии": 2542,
      "законо": 2543,
      "фонд": 2544,
      "##лег": 2545,
      "##iv": 2546,
      "##онт": 2547,
      "верто": 2548,
      "телев": 2549,
      "француз": 2550,
      "каз": 2551,
      "нью": 2552,
      "семь": 2553,
      "##аря": 2554,
      "##няя": 2555,
      "##ющии": 2556,
      "клуб": 2557,
      "##матр": 2558,
      "##иверс": 2559,
      "клуба": 2560,
      "необходим": 2561,
      "##опас": 2562,
      "средств": 2563,
      "магаз": 2564,
      "например": 2565,
      "пев": 2566,
      "определ": 2567,
      "энер": 2568,
      "работу": 2569,
      "блог": 2570,
      "олимпии": 2571,
      "app": 2572,
      "асс": 2573,
      "##глав": 2574,
      "##ерв": 2575,
      "изображ": 2576,
      "выпуст": 2577,
      "##торую": 2578,
      "вол": 2579,
      "##оу": 2580,
      "конс": 2581,
      "огранич": 2582,
      "текущ": 2583,
      "сег": 2584,
      "нуж": 2585,
      "##сим": 2586,
      "##ея": 2587,
      "##овали": 2588,
      "части": 2589,
      "релизе": 2590,
      "ла": 2591,
      "роб": 2592,
      "новых": 2593,
      "молод": 2594,
      "##ыс": 2595,
      "различ": 2596,
      "человека": 2597,
      "##сирован": 2598,
      "подоб": 2599,
      "##люд": 2600,
      "искус": 2601,
      "привод": 2602,
      "мире": 2603,
      "##инам": 2604,
      "преступ": 2605,
      "de": 2606,
      "##инга": 2607,
      "стороны": 2608,
      "##асса": 2609,
      "помимо": 2610,
      "регион": 2611,
      "коммер": 2612,
      "провер": 2613,
      "верс": 2614,
      "помощью": 2615,
      "##ъем": 2616,
      "отношении": 2617,
      "обеспеч": 2618,
      "бил": 2619,
      "жиз": 2620,
      "##служ": 2621,
      "сообщении": 2622,
      "одним": 2623,
      "даже": 2624,
      "##лял": 2625,
      "осу": 2626,
      "налог": 2627,
      "тот": 2628,
      "##елю": 2629,
      "арест": 2630,
      "агентства": 2631,
      "договор": 2632,
      "##лон": 2633,
      "данные": 2634,
      "##стро": 2635,
      "пож": 2636,
      "фильма": 2637,
      "##би": 2638,
      "стар": 2639,
      "процесс": 2640,
      "ди": 2641,
      "##лись": 2642,
      "##енте": 2643,
      "универс": 2644,
      "роль": 2645,
      "##лено": 2646,
      "интерв": 2647,
      "культ": 2648,
      "выв": 2649,
      "достиг": 2650,
      "##ation": 2651,
      "интерес": 2652,
      "##зы": 2653,
      "##bo": 2654,
      "мик": 2655,
      "транспорт": 2656,
      "##ивается": 2657,
      "выиг": 2658,
      "te": 2659,
      "##оприят": 2660,
      "##енным": 2661,
      "совмест": 2662,
      "либ": 2663,
      "пох": 2664,
      "запис": 2665,
      "спис": 2666,
      "##and": 2667,
      "поэ": 2668,
      "группа": 2669,
      "информацию": 2670,
      "федера": 2671,
      "мероприят": 2672,
      "##лед": 2673,
      "разреш": 2674,
      "мих": 2675,
      "##ерх": 2676,
      "пром": 2677,
      "##ирует": 2678,
      "##нуть": 2679,
      "bl": 2680,
      "аб": 2681,
      "##ествен": 2682,
      "##кии": 2683,
      "жизни": 2684,
      "ru": 2685,
      "авто": 2686,
      "##едения": 2687,
      "дело": 2688,
      "рес": 2689,
      "##кат": 2690,
      "всем": 2691,
      "великобритании": 2692,
      "шв": 2693,
      "##естив": 2694,
      "безопас": 2695,
      "запрещ": 2696,
      "очередь": 2697,
      "ноч": 2698,
      "##звест": 2699,
      "диск": 2700,
      "##итер": 2701,
      "две": 2702,
      "китаи": 2703,
      "##ником": 2704,
      "инф": 2705,
      "программы": 2706,
      "##геи": 2707,
      "##торов": 2708,
      "предприят": 2709,
      "уголов": 2710,
      "уточня": 2711,
      "суб": 2712,
      "##ьют": 2713,
      "несколь": 2714,
      "зр": 2715,
      "ман": 2716,
      "##аи": 2717,
      "##ерн": 2718,
      "менее": 2719,
      "един": 2720,
      "центр": 2721,
      "сниж": 2722,
      "сообщили": 2723,
      "моб": 2724,
      "смер": 2725,
      "юж": 2726,
      "##ывать": 2727,
      "остав": 2728,
      "##руго": 2729,
      "англии": 2730,
      "гл": 2731,
      "предлаг": 2732,
      "сери": 2733,
      "##ающих": 2734,
      "исследов": 2735,
      "ради": 2736,
      "километров": 2737,
      "прилож": 2738,
      "ресур": 2739,
      "хок": 2740,
      "##чик": 2741,
      "##озя": 2742,
      "наш": 2743,
      "физ": 2744,
      "пример": 2745,
      "запрет": 2746,
      "банков": 2747,
      "сотрудн": 2748,
      "неизвест": 2749,
      "##one": 2750,
      "дома": 2751,
      "##енции": 2752,
      "новые": 2753,
      "##ощад": 2754,
      "##лагод": 2755,
      "apple": 2756,
      "##рад": 2757,
      "старт": 2758,
      "подготов": 2759,
      "приним": 2760,
      "##быт": 2761,
      "тов": 2762,
      "медвед": 2763,
      "бра": 2764,
      "##сколь": 2765,
      "##ительных": 2766,
      "первои": 2767,
      "мал": 2768,
      "располож": 2769,
      "веч": 2770,
      "па": 2771,
      "##ици": 2772,
      "##яет": 2773,
      "добавил": 2774,
      "##лия": 2775,
      "##прин": 2776,
      "##истр": 2777,
      "##форм": 2778,
      "проблем": 2779,
      "внут": 2780,
      "хор": 2781,
      "##ct": 2782,
      "площад": 2783,
      "газа": 2784,
      "основан": 2785,
      "интервью": 2786,
      "лич": 2787,
      "ут": 2788,
      "##ian": 2789,
      "##ros": 2790,
      "##ствует": 2791,
      "##ню": 2792,
      "##оды": 2793,
      "аэро": 2794,
      "людеи": 2795,
      "поясн": 2796,
      "##илл": 2797,
      "корпора": 2798,
      "последние": 2799,
      "максим": 2800,
      "обороны": 2801,
      "мобиль": 2802,
      "мэ": 2803,
      "нос": 2804,
      "посколь": 2805,
      "##ноз": 2806,
      "кто": 2807,
      "отлич": 2808,
      "газпром": 2809,
      "интерфакс": 2810,
      "##нев": 2811,
      "##вор": 2812,
      "вызв": 2813,
      "коп": 2814,
      "##иста": 2815,
      "сор": 2816,
      "сок": 2817,
      "198": 2818,
      "##лин": 2819,
      "##си": 2820,
      "россииские": 2821,
      "поскольку": 2822,
      "респ": 2823,
      "выполн": 2824,
      "as": 2825,
      "чего": 2826,
      "##кин": 2827,
      "##ват": 2828,
      "объясн": 2829,
      "сим": 2830,
      "##вид": 2831,
      "доход": 2832,
      "режим": 2833,
      "\")": 2834,
      "стране": 2835,
      "исключ": 2836,
      "press": 2837,
      "##ями": 2838,
      "четырех": 2839,
      "планирует": 2840,
      "часов": 2841,
      "перег": 2842,
      "возможность": 2843,
      "игр": 2844,
      "джон": 2845,
      "истории": 2846,
      "идет": 2847,
      "##едель": 2848,
      "##альная": 2849,
      "самых": 2850,
      "заказ": 2851,
      "коллек": 2852,
      "##up": 2853,
      "##aily": 2854,
      "гар": 2855,
      "официальном": 2856,
      "возглав": 2857,
      "средства": 2858,
      "дэ": 2859,
      "лиги": 2860,
      "##рь": 2861,
      "##кам": 2862,
      "наиб": 2863,
      "неб": 2864,
      "##ты": 2865,
      "##страл": 2866,
      "сохран": 2867,
      "##торы": 2868,
      "расслед": 2869,
      "управления": 2870,
      "раст": 2871,
      "##яч": 2872,
      "австрал": 2873,
      "должна": 2874,
      "посв": 2875,
      "сергеи": 2876,
      "благод": 2877,
      "##анк": 2878,
      "##про": 2879,
      "##ters": 2880,
      "эксперт": 2881,
      "либо": 2882,
      "дня": 2883,
      "закон": 2884,
      "фл": 2885,
      "прек": 2886,
      "##итет": 2887,
      "##роз": 2888,
      "этих": 2889,
      "планируется": 2890,
      "книг": 2891,
      "нал": 2892,
      "пись": 2893,
      "##рен": 2894,
      "проидет": 2895,
      "##план": 2896,
      "аф": 2897,
      "админ": 2898,
      "кас": 2899,
      "актер": 2900,
      "герм": 2901,
      "правительство": 2902,
      "daily": 2903,
      "бир": 2904,
      "##аств": 2905,
      "##ица": 2906,
      "##ница": 2907,
      "друго": 2908,
      "##аил": 2909,
      "которую": 2910,
      "владель": 2911,
      "опубликов": 2912,
      "иор": 2913,
      "шк": 2914,
      "##реи": 2915,
      "##говор": 2916,
      "##ового": 2917,
      "##уре": 2918,
      "первого": 2919,
      "##art": 2920,
      "##леч": 2921,
      "речь": 2922,
      "энерг": 2923,
      "осуществ": 2924,
      "вырос": 2925,
      "тепер": 2926,
      "пад": 2927,
      "##анных": 2928,
      "теперь": 2929,
      "вним": 2930,
      "факт": 2931,
      "##лов": 2932,
      "##фл": 2933,
      "##алии": 2934,
      "##лара": 2935,
      "являются": 2936,
      "##ube": 2937,
      "ук": 2938,
      "цел": 2939,
      "коммент": 2940,
      "смарт": 2941,
      "дмитрии": 2942,
      "лу": 2943,
      "##ерг": 2944,
      "##исим": 2945,
      "подоз": 2946,
      "своб": 2947,
      "заявили": 2948,
      "##унд": 2949,
      "нефти": 2950,
      "утвержд": 2951,
      "##20": 2952,
      "движ": 2953,
      "рынке": 2954,
      "ро": 2955,
      "прет": 2956,
      "##ительные": 2957,
      "аналог": 2958,
      "отмечается": 2959,
      "браз": 2960,
      "стат": 2961,
      "выд": 2962,
      "компьют": 2963,
      "десят": 2964,
      "введ": 2965,
      "##od": 2966,
      "##цид": 2967,
      "европы": 2968,
      "список": 2969,
      "ле": 2970,
      "##жи": 2971,
      "никак": 2972,
      "цер": 2973,
      "##утств": 2974,
      "деньги": 2975,
      "счетом": 2976,
      "примерно": 2977,
      "##кого": 2978,
      "##гр": 2979,
      "##енная": 2980,
      "отмен": 2981,
      "стр": 2982,
      "##ностран": 2983,
      "иностран": 2984,
      "##цеи": 2985,
      "##ri": 2986,
      "изб": 2987,
      "##жды": 2988,
      "полож": 2989,
      "назад": 2990,
      "yout": 2991,
      "##лся": 2992,
      "годы": 2993,
      "##пада": 2994,
      "##ски": 2995,
      "##олев": 2996,
      "такие": 2997,
      "соврем": 2998,
      "смартф": 2999,
      "гре": 3000,
      "оз": 3001,
      "пара": 3002,
      "сет": 3003,
      "съем": 3004,
      "обществен": 3005,
      "youtube": 3006,
      "метров": 3007,
      "##мо": 3008,
      "экспер": 3009,
      "соответствующ": 3010,
      "##сона": 3011,
      "обращ": 3012,
      "нан": 3013,
      "##арь": 3014,
      "сокра": 3015,
      "роснеф": 3016,
      "одно": 3017,
      "конст": 3018,
      "получить": 3019,
      "транс": 3020,
      "автомобил": 3021,
      "сокращ": 3022,
      "пенс": 3023,
      "##oft": 3024,
      "##чив": 3025,
      "бюджет": 3026,
      "посвящ": 3027,
      "##одня": 3028,
      "собои": 3029,
      "имени": 3030,
      "уточн": 3031,
      "количество": 3032,
      "##мов": 3033,
      "##пос": 3034,
      "##ывают": 3035,
      "матче": 3036,
      "помощи": 3037,
      "##скими": 3038,
      "##отив": 3039,
      "инцид": 3040,
      "существ": 3041,
      "пятницу": 3042,
      "состоится": 3043,
      "днеи": 3044,
      "##оту": 3045,
      "арм": 3046,
      "услу": 3047,
      "пыт": 3048,
      "силь": 3049,
      "##охран": 3050,
      "премии": 3051,
      "60": 3052,
      "власт": 3053,
      "##окс": 3054,
      "форм": 3055,
      "##енн": 3056,
      "ассо": 3057,
      "сегодня": 3058,
      "##ыд": 3059,
      "нам": 3060,
      "таких": 3061,
      "##all": 3062,
      "##икации": 3063,
      "бывшии": 3064,
      "хозя": 3065,
      "##уда": 3066,
      "##ждения": 3067,
      "##ine": 3068,
      "шесть": 3069,
      "рест": 3070,
      "##рид": 3071,
      "структ": 3072,
      "составе": 3073,
      "полицеи": 3074,
      "источник": 3075,
      "##того": 3076,
      "отв": 3077,
      "##ограм": 3078,
      "главныи": 3079,
      "##шт": 3080,
      "tim": 3081,
      "доллара": 3082,
      "участв": 3083,
      "серед": 3084,
      "объект": 3085,
      "теат": 3086,
      "благодаря": 3087,
      "лин": 3088,
      "будущ": 3089,
      "объедин": 3090,
      "слова": 3091,
      "мень": 3092,
      "##енном": 3093,
      "санкт": 3094,
      "тонн": 3095,
      "ar": 3096,
      "нев": 3097,
      "стад": 3098,
      "##лением": 3099,
      "##ирования": 3100,
      "теме0": 3101,
      "напом": 3102,
      "эн": 3103,
      "##укт": 3104,
      "##um": 3105,
      "##ak": 3106,
      "##енит": 3107,
      "теме00": 3108,
      "фотографии": 3109,
      "##ышлен": 3110,
      "##ождения": 3111,
      "##ечат": 3112,
      "посет": 3113,
      "раск": 3114,
      "ба": 3115,
      "фестив": 3116,
      "полов": 3117,
      "месте": 3118,
      "самолетов": 3119,
      "нескольких": 3120,
      "##авшии": 3121,
      "обыч": 3122,
      "телеф": 3123,
      "##исты": 3124,
      "крит": 3125,
      "продукт": 3126,
      "голос": 3127,
      "официальныи": 3128,
      "франции": 3129,
      "понедель": 3130,
      "австралии": 3131,
      "эту": 3132,
      "вертолет": 3133,
      "республ": 3134,
      "##анда": 3135,
      "##альным": 3136,
      "продук": 3137,
      "канад": 3138,
      "##пуст": 3139,
      "переговор": 3140,
      "член": 3141,
      "##ывается": 3142,
      "пользователя": 3143,
      "ассоци": 3144,
      "##bc": 3145,
      "одна": 3146,
      "повыш": 3147,
      "примен": 3148,
      "развития": 3149,
      "ти": 3150,
      "##уэ": 3151,
      "##ne": 3152,
      "##антов": 3153,
      "попы": 3154,
      "##илот": 3155,
      "опас": 3156,
      "гр": 3157,
      "##ожет": 3158,
      "италь": 3159,
      "гал": 3160,
      "уз": 3161,
      "цель": 3162,
      "получила": 3163,
      "замет": 3164,
      "модель": 3165,
      "девуш": 3166,
      "##ака": 3167,
      "расход": 3168,
      "поэтому": 3169,
      "36": 3170,
      "пам": 3171,
      "##анные": 3172,
      "соц": 3173,
      "индии": 3174,
      "вице": 3175,
      "##оволь": 3176,
      "картины": 3177,
      "борь": 3178,
      "mic": 3179,
      "пал": 3180,
      "роз": 3181,
      "##ob": 3182,
      "самым": 3183,
      "конца": 3184,
      "ожидается": 3185,
      "еи": 3186,
      "##op": 3187,
      "##дут": 3188,
      "первом": 3189,
      "2007": 3190,
      "сотрудники": 3191,
      "службы": 3192,
      "фунтов": 3193,
      "ситуа": 3194,
      "понедельник": 3195,
      "sp": 3196,
      "ано": 3197,
      "вор": 3198,
      "слу": 3199,
      "фон": 3200,
      "##аточ": 3201,
      "годах": 3202,
      "двиг": 3203,
      "главы": 3204,
      "голов": 3205,
      "##над": 3206,
      "провел": 3207,
      "##аракт": 3208,
      "карь": 3209,
      "немец": 3210,
      "портал": 3211,
      "национальнои": 3212,
      "and": 3213,
      "##стран": 3214,
      "##дач": 3215,
      "брон": 3216,
      "деиствия": 3217,
      "подтверд": 3218,
      "(\"": 3219,
      "##лась": 3220,
      "оконч": 3221,
      "истреб": 3222,
      "продажу": 3223,
      "##илии": 3224,
      "алексеи": 3225,
      "федерации": 3226,
      ".\"": 3227,
      "аз": 3228,
      "##ov": 3229,
      "##ab": 3230,
      "авиа": 3231,
      "197": 3232,
      "сентябре": 3233,
      "число": 3234,
      "имеет": 3235,
      "##ыдущ": 3236,
      "аук": 3237,
      "эп": 3238,
      "##ul": 3239,
      "##ers": 3240,
      "##сте": 3241,
      "предыдущ": 3242,
      "##разу": 3243,
      "##ill": 3244,
      "раион": 3245,
      "нефт": 3246,
      "##орож": 3247,
      "##тором": 3248,
      "рекорд": 3249,
      "##проект": 3250,
      "эф": 3251,
      "данных": 3252,
      "техн": 3253,
      "прогноз": 3254,
      "##if": 3255,
      "##енное": 3256,
      "##ающии": 3257,
      "сниз": 3258,
      "тяж": 3259,
      "начал": 3260,
      "постанов": 3261,
      "полиции": 3262,
      "месяцев": 3263,
      "барр": 3264,
      "вторник": 3265,
      "матча": 3266,
      "соцс": 3267,
      "сир": 3268,
      "##щик": 3269,
      "##яться": 3270,
      "информация": 3271,
      "считает": 3272,
      "правительства": 3273,
      "попыт": 3274,
      "##ap": 3275,
      "##ске": 3276,
      "сумму": 3277,
      "##лице": 3278,
      "##уру": 3279,
      "##уется": 3280,
      "возв": 3281,
      "председ": 3282,
      "марте": 3283,
      "санкции": 3284,
      "шоу": 3285,
      "##иона": 3286,
      "прид": 3287,
      "науч": 3288,
      "##никами": 3289,
      "принят": 3290,
      "убии": 3291,
      "сообщила": 3292,
      "арх": 3293,
      "мае": 3294,
      "наблюд": 3295,
      "размере": 3296,
      "##анка": 3297,
      "нав": 3298,
      "##ону": 3299,
      "##авать": 3300,
      "путин": 3301,
      "##ане": 3302,
      "позд": 3303,
      "вош": 3304,
      "продажи": 3305,
      "подчеркнул": 3306,
      "45": 3307,
      "вари": 3308,
      "##сков": 3309,
      "заявила": 3310,
      "##ентом": 3311,
      "выясн": 3312,
      "такои": 3313,
      "свое": 3314,
      "##ингов": 3315,
      "январе": 3316,
      "некоторые": 3317,
      "приводит": 3318,
      "безопасности": 3319,
      "итальян": 3320,
      "труд": 3321,
      "собира": 3322,
      "среду": 3323,
      "городе": 3324,
      "рынка": 3325,
      "конфер": 3326,
      "авиаком": 3327,
      "пак": 3328,
      "характ": 3329,
      "##одов": 3330,
      "##лом": 3331,
      "##og": 3332,
      "отс": 3333,
      "секрет": 3334,
      "»).": 3335,
      "##осто": 3336,
      "##щества": 3337,
      "работе": 3338,
      "##ертв": 3339,
      "телеканал": 3340,
      "500": 3341,
      "запад": 3342,
      "вен": 3343,
      "##ье": 3344,
      "отдел": 3345,
      "##уди": 3346,
      "нужно": 3347,
      "##цов": 3348,
      "полностью": 3349,
      "исследования": 3350,
      "наград": 3351,
      "событ": 3352,
      "первые": 3353,
      "последнии": 3354,
      "имя": 3355,
      "пользователи": 3356,
      "погиб": 3357,
      "ге": 3358,
      "спут": 3359,
      "удал": 3360,
      "экспорт": 3361,
      "прошлого": 3362,
      "электрон": 3363,
      "коммерс": 3364,
      "страх": 3365,
      "название": 3366,
      "професс": 3367,
      "эфф": 3368,
      "##олее": 3369,
      "##ека": 3370,
      "пяти": 3371,
      "300": 3372,
      "сразу": 3373,
      "##бур": 3374,
      "##лаин": 3375,
      "##альном": 3376,
      "##аниеи": 3377,
      "производства": 3378,
      "вклад": 3379,
      "##еше": 3380,
      "##чет": 3381,
      "предус": 3382,
      "миним": 3383,
      "работает": 3384,
      "организ": 3385,
      "##иад": 3386,
      "заплан": 3387,
      "##ляют": 3388,
      "расп": 3389,
      "актр": 3390,
      "четверг": 3391,
      "бесп": 3392,
      "гру": 3393,
      "мв": 3394,
      "чинов": 3395,
      "##ап": 3396,
      "##аков": 3397,
      "годов": 3398,
      "кры": 3399,
      "ноябре": 3400,
      "наиболее": 3401,
      "пасса": 3402,
      "##кс": 3403,
      "##ту": 3404,
      "##ran": 3405,
      "дела": 3406,
      "декабре": 3407,
      "причинои": 3408,
      "студии": 3409,
      "министерство": 3410,
      "режиссер": 3411,
      "пун": 3412,
      "корр": 3413,
      "гост": 3414,
      "динам": 3415,
      "##ci": 3416,
      "нее": 3417,
      "сумма": 3418,
      "общеи": 3419,
      "меня": 3420,
      "самолет": 3421,
      "контрол": 3422,
      "ним": 3423,
      "##ду": 3424,
      "спас": 3425,
      "прибы": 3426,
      "получили": 3427,
      "сотрудников": 3428,
      "насел": 3429,
      "пассаж": 3430,
      "##ою": 3431,
      "##ik": 3432,
      "##анта": 3433,
      "##ительнои": 3434,
      "постро": 3435,
      "##лось": 3436,
      "##ивают": 3437,
      "осв": 3438,
      "составила": 3439,
      "ведущ": 3440,
      "##дер": 3441,
      "##ber": 3442,
      "практ": 3443,
      "##ностеи": 3444,
      "капит": 3445,
      "##ack": 3446,
      "##нес": 3447,
      "##ателем": 3448,
      "##ратить": 3449,
      "##оян": 3450,
      "бренд": 3451,
      "стоит": 3452,
      "аналогич": 3453,
      "al": 3454,
      "язы": 3455,
      "июне": 3456,
      "##ающие": 3457,
      "документ": 3458,
      "внимание": 3459,
      "борт": 3460,
      "мир": 3461,
      "оруж": 3462,
      "ска": 3463,
      "цб": 3464,
      "##рор": 3465,
      "##ическим": 3466,
      "пс": 3467,
      "пит": 3468,
      "##яли": 3469,
      "##итут": 3470,
      "##ственно": 3471,
      "работа": 3472,
      "белор": 3473,
      "00": 3474,
      "for": 3475,
      "##хл": 3476,
      "поряд": 3477,
      "заг": 3478,
      "##дают": 3479,
      "##ющих": 3480,
      "##ence": 3481,
      "диза": 3482,
      "тро": 3483,
      "##uters": 3484,
      "##альное": 3485,
      "россииская": 3486,
      "реал": 3487,
      "возраст": 3488,
      "вещ": 3489,
      "##ительныи": 3490,
      "газеты": 3491,
      "джеи": 3492,
      "предполож": 3493,
      "micros": 3494,
      "дал": 3495,
      "сю": 3496,
      "адрес": 3497,
      "смогут": 3498,
      "главного": 3499,
      "университета": 3500,
      "сотрудниче": 3501,
      "пенсион": 3502,
      "фиг": 3503,
      "reuters": 3504,
      "пункт": 3505,
      "пласт": 3506,
      "##ировала": 3507,
      "замест": 3508,
      "типа": 3509,
      "ль": 3510,
      "прик": 3511,
      "##ива": 3512,
      "соглашение": 3513,
      "крат": 3514,
      "##мет": 3515,
      "прям": 3516,
      "##ционнои": 3517,
      "##вард": 3518,
      "##мотря": 3519,
      "лиценз": 3520,
      "тренер": 3521,
      "написал": 3522,
      "##иям": 3523,
      "возник": 3524,
      "нефть": 3525,
      "ввс": 3526,
      "многие": 3527,
      "холд": 3528,
      "запланирован": 3529,
      "mar": 3530,
      "##ыг": 3531,
      "##станов": 3532,
      "##ары": 3533,
      "люди": 3534,
      "появилась": 3535,
      "белорус": 3536,
      "пи": 3537,
      "тю": 3538,
      "##поль": 3539,
      "##эк": 3540,
      "##икс": 3541,
      "работать": 3542,
      "ив": 3543,
      "##ствии": 3544,
      "свидет": 3545,
      "чемпионат": 3546,
      "рекламы": 3547,
      "этим": 3548,
      "несмотря": 3549,
      "ass": 3550,
      "microsoft": 3551,
      "хран": 3552,
      "наде": 3553,
      "##ителем": 3554,
      "##кад": 3555,
      "##роч": 3556,
      "суда": 3557,
      "польз": 3558,
      "операции": 3559,
      "дорог": 3560,
      "происход": 3561,
      "вок": 3562,
      "шир": 3563,
      "##уг": 3564,
      "##шее": 3565,
      "##анныи": 3566,
      "анал": 3567,
      "никол": 3568,
      "топлив": 3569,
      "середине": 3570,
      "32": 3571,
      "70": 3572,
      "##остью": 3573,
      "подраз": 3574,
      "трилли": 3575,
      "решения": 3576,
      "акцион": 3577,
      "вышел": 3578,
      "##igh": 3579,
      "##сом": 3580,
      "##авших": 3581,
      "составит": 3582,
      "остров": 3583,
      "сравнению": 3584,
      "80": 3585,
      "ам": 3586,
      "блок": 3587,
      "##щиков": 3588,
      "продюс": 3589,
      "196": 3590,
      "##our": 3591,
      "##зор": 3592,
      "достав": 3593,
      "американскии": 3594,
      "государства": 3595,
      "ракеты": 3596,
      "ведомства": 3597,
      "##чиков": 3598,
      "нак": 3599,
      "##авно": 3600,
      "штраф": 3601,
      "считают": 3602,
      "позже": 3603,
      "институт": 3604,
      "##рач": 3605,
      "##ательства": 3606,
      "данныи": 3607,
      "путеше": 3608,
      "times": 3609,
      "внеш": 3610,
      "лед": 3611,
      "сеть": 3612,
      "таб": 3613,
      "##ениях": 3614,
      "##ющие": 3615,
      "журнале": 3616,
      "pl": 3617,
      "##евои": 3618,
      "отметили": 3619,
      "бума": 3620,
      "##цем": 3621,
      "##оят": 3622,
      "##енную": 3623,
      "##има": 3624,
      "выдел": 3625,
      "##альную": 3626,
      "свет": 3627,
      "коллект": 3628,
      "##ленных": 3629,
      "феврале": 3630,
      "отдель": 3631,
      "технологии": 3632,
      "киев": 3633,
      "прих": 3634,
      "перес": 3635,
      "предприн": 3636,
      "##ind": 3637,
      "правоохран": 3638,
      "союза": 3639,
      "сня": 3640,
      "изра": 3641,
      "пострад": 3642,
      "система": 3643,
      "себе": 3644,
      "##oci": 3645,
      "депут": 3646,
      "использовать": 3647,
      "важ": 3648,
      "син": 3649,
      "цены": 3650,
      "##шую": 3651,
      "выидет": 3652,
      "апреле": 3653,
      "спортив": 3654,
      "##шир": 3655,
      "##ge": 3656,
      "##оты": 3657,
      "##спектив": 3658,
      "совета": 3659,
      "большои": 3660,
      "принято": 3661,
      "администра": 3662,
      "церемон": 3663,
      "реи": 3664,
      "##кие": 3665,
      "##оф": 3666,
      "##лиз": 3667,
      "закуп": 3668,
      "права": 3669,
      "представителя": 3670,
      "единствен": 3671,
      "жизн": 3672,
      "як": 3673,
      "обсу": 3674,
      "раза": 3675,
      "реб": 3676,
      "2006": 3677,
      "программ": 3678,
      "##ie": 3679,
      "##по": 3680,
      "##av": 3681,
      "выраз": 3682,
      "крым": 3683,
      "хорош": 3684,
      "сорев": 3685,
      "фир": 3686,
      "комитета": 3687,
      "сезона": 3688,
      "деятельности": 3689,
      "памят": 3690,
      "коммерсант": 3691,
      "ря": 3692,
      "##рез": 3693,
      "онлаин": 3694,
      "композ": 3695,
      "назвал": 3696,
      "результаты": 3697,
      "детеи": 3698,
      "восточ": 3699,
      "аэропорт": 3700,
      "##ившии": 3701,
      "бюджета": 3702,
      "животных": 3703,
      "тради": 3704,
      "германии": 3705,
      "be": 3706,
      "дер": 3707,
      "прист": 3708,
      "первым": 3709,
      "##ницы": 3710,
      "ауди": 3711,
      "вик": 3712,
      "##фин": 3713,
      "выбор": 3714,
      "##ционного": 3715,
      "кап": 3716,
      "министра": 3717,
      "петербург": 3718,
      "ир": 3719,
      "кал": 3720,
      "каб": 3721,
      "кали": 3722,
      "##эконом": 3723,
      "перспектив": 3724,
      "##ическая": 3725,
      "сделать": 3726,
      "дальнеи": 3727,
      "другои": 3728,
      "вступ": 3729,
      "зал": 3730,
      "ленте": 3731,
      "##пания": 3732,
      "которым": 3733,
      "картина": 3734,
      "обнаружили": 3735,
      "##ите": 3736,
      "комплек": 3737,
      "источники": 3738,
      "гиг": 3739,
      "пат": 3740,
      "изуч": 3741,
      "приб": 3742,
      "##ционных": 3743,
      "своим": 3744,
      "американскои": 3745,
      "октябре": 3746,
      "успеш": 3747,
      "уточняется": 3748,
      "400": 3749,
      "облад": 3750,
      "##лаго": 3751,
      "предвар": 3752,
      "##ательно": 3753,
      "##ort": 3754,
      "организация": 3755,
      "официально": 3756,
      "закрыт": 3757,
      "сирии": 3758,
      "оно": 3759,
      "##наз": 3760,
      "2017": 3761,
      "##никам": 3762,
      "уровне": 3763,
      "солн": 3764,
      "##енности": 3765,
      "недост": 3766,
      "включая": 3767,
      "воздуш": 3768,
      "внутрен": 3769,
      "##гля": 3770,
      "##образ": 3771,
      "саита": 3772,
      "фильме": 3773,
      "произошел": 3774,
      "хокк": 3775,
      "конференции": 3776,
      "гон": 3777,
      "ото": 3778,
      "страт": 3779,
      "удар": 3780,
      "пу": 3781,
      "трав": 3782,
      "заим": 3783,
      "составил": 3784,
      "арбит": 3785,
      "оборуд": 3786,
      "килограм": 3787,
      "необходимо": 3788,
      "красно": 3789,
      "ассоциации": 3790,
      "смен": 3791,
      "##ьез": 3792,
      "стер": 3793,
      "спарт": 3794,
      "сможет": 3795,
      "занимает": 3796,
      "регуляр": 3797,
      "лондон": 3798,
      "вруч": 3799,
      "пав": 3800,
      "тан": 3801,
      "##бои": 3802,
      "перен": 3803,
      "##меш": 3804,
      "стол": 3805,
      "украине": 3806,
      "ip": 3807,
      "##мс": 3808,
      "##ыск": 3809,
      "##ва": 3810,
      "##еиц": 3811,
      "выруч": 3812,
      "первую": 3813,
      "июле": 3814,
      "большин": 3815,
      "хотя": 3816,
      "михаил": 3817,
      "хоккеи": 3818,
      "бокс": 3819,
      "зол": 3820,
      "ход": 3821,
      "цена": 3822,
      "##ky": 3823,
      "##овала": 3824,
      "приост": 3825,
      "августе": 3826,
      "канд": 3827,
      "##ока": 3828,
      "##фа": 3829,
      "##ждение": 3830,
      "рабоч": 3831,
      "помог": 3832,
      "ночь": 3833,
      "характер": 3834,
      "вас": 3835,
      "##жен": 3836,
      "##овые": 3837,
      "кост": 3838,
      "россию": 3839,
      "евг": 3840,
      "очков": 3841,
      "пояснил": 3842,
      "пораж": 3843,
      "чемпионате": 3844,
      "названием": 3845,
      "центра": 3846,
      "##яжении": 3847,
      "en": 3848,
      "бои": 3849,
      "тру": 3850,
      "##леи": 3851,
      "##em": 3852,
      "##пе": 3853,
      "##енда": 3854,
      "высказ": 3855,
      "##каун": 3856,
      "спект": 3857,
      "опис": 3858,
      "близ": 3859,
      "сравн": 3860,
      "швеиц": 3861,
      "##флик": 3862,
      "фонда": 3863,
      "стратег": 3864,
      "ны": 3865,
      "##мар": 3866,
      "##иями": 3867,
      "##ама": 3868,
      "конфлик": 3869,
      "криз": 3870,
      "самои": 3871,
      "##рабат": 3872,
      "места": 3873,
      "московскои": 3874,
      "90": 3875,
      "иде": 3876,
      "игор": 3877,
      "##vi": 3878,
      "напада": 3879,
      "##реп": 3880,
      "странице": 3881,
      "аккаун": 3882,
      "концерт": 3883,
      "сервиса": 3884,
      "метал": 3885,
      "законод": 3886,
      "дон": 3887,
      "иран": 3888,
      "эм": 3889,
      "команда": 3890,
      "поверх": 3891,
      "домаш": 3892,
      "результат": 3893,
      "оказался": 3894,
      "футболу": 3895,
      "переговоры": 3896,
      "соревн": 3897,
      "вось": 3898,
      "кад": 3899,
      "спец": 3900,
      "»),": 3901,
      "олимпиад": 3902,
      "тол": 3903,
      "##мос": 3904,
      "##фиц": 3905,
      "##жет": 3906,
      "##чис": 3907,
      "##чики": 3908,
      "увид": 3909,
      "житель": 3910,
      "ид": 3911,
      "##яла": 3912,
      "##ld": 3913,
      "##поч": 3914,
      "##эм": 3915,
      "##аки": 3916,
      "персона": 3917,
      "главным": 3918,
      "##ифа": 3919,
      "относ": 3920,
      "рассмотр": 3921,
      "перевоз": 3922,
      "gu": 3923,
      "th": 3924,
      "##ког": 3925,
      "запрос": 3926,
      "».«": 3927,
      "##est": 3928,
      "турни": 3929,
      "сборная": 3930,
      "адв": 3931,
      "##емонстр": 3932,
      "подозрев": 3933,
      "##акон": 3934,
      "##ляется": 3935,
      "##ованием": 3936,
      "##кова": 3937,
      "постоян": 3938,
      "журнала": 3939,
      "модерн": 3940,
      "месяц": 3941,
      "силу": 3942,
      "дизаин": 3943,
      "дра": 3944,
      "обнов": 3945,
      "просто": 3946,
      "списк": 3947,
      "##ическом": 3948,
      "авторы": 3949,
      "дл": 3950,
      "заработ": 3951,
      "воск": 3952,
      "##лению": 3953,
      "курс": 3954,
      "запуст": 3955,
      "медведев": 3956,
      "цска": 3957,
      "##аля": 3958,
      "##едж": 3959,
      "военно": 3960,
      "начали": 3961,
      "турн": 3962,
      "недели": 3963,
      "террор": 3964,
      "руководство": 3965,
      "ответствен": 3966,
      "приход": 3967,
      "33": 3968,
      "75": 3969,
      "am": 3970,
      "жан": 3971,
      "низ": 3972,
      "##иан": 3973,
      "##ерна": 3974,
      "##орон": 3975,
      "##ограф": 3976,
      "##ическую": 3977,
      "##умы": 3978,
      "провести": 3979,
      "матчеи": 3980,
      "директора": 3981,
      "каждыи": 3982,
      "зенит": 3983,
      "исл": 3984,
      "##ствие": 3985,
      "##рук": 3986,
      "##отреб": 3987,
      "##артам": 3988,
      "новост": 3989,
      "сделки": 3990,
      "позволяет": 3991,
      "знам": 3992,
      "телеканала": 3993,
      "предполагается": 3994,
      "бо": 3995,
      "лок": 3996,
      "##аим": 3997,
      "такое": 3998,
      "инт": 3999,
      "компаниеи": 4000,
      "должно": 4001,
      "ученых": 4002,
      "восстанов": 4003,
      "рассчит": 4004,
      "принадлежит": 4005,
      "текущего": 4006,
      "приостанов": 4007,
      "тест": 4008,
      "этому": 4009,
      "напад": 4010,
      "итоге": 4011,
      "бизнесмен": 4012,
      "влия": 4013,
      "##se": 4014,
      "подроб": 4015,
      "иници": 4016,
      "вероят": 4017,
      "##ясня": 4018,
      "финансирован": 4019,
      "##аемых": 4020,
      "##ell": 4021,
      "фильмов": 4022,
      "женщина": 4023,
      "регуля": 4024,
      "##онтакт": 4025,
      "адвок": 4026,
      "сол": 4027,
      "неод": 4028,
      "##иссии": 4029,
      "позволит": 4030,
      "вышла": 4031,
      "34": 4032,
      "mail": 4033,
      "sh": 4034,
      "бл": 4035,
      "##ния": 4036,
      "##око": 4037,
      "подв": 4038,
      "летнего": 4039,
      "полиция": 4040,
      "школ": 4041,
      "энергет": 4042,
      "театра": 4043,
      "позднее": 4044,
      "##ost": 4045,
      "участников": 4046,
      "мужчина": 4047,
      "сложности": 4048,
      "ag": 4049,
      "благо": 4050,
      "##тс": 4051,
      "замен": 4052,
      "##еспонд": 4053,
      "объявил": 4054,
      "условиях": 4055,
      "законопроект": 4056,
      "##ive": 4057,
      "air": 4058,
      "wor": 4059,
      "глу": 4060,
      "##ули": 4061,
      "##икл": 4062,
      "##жегод": 4063,
      "болель": 4064,
      "сезоне": 4065,
      "or": 4066,
      "ежегод": 4067,
      "кэ": 4068,
      "кит": 4069,
      "мех": 4070,
      "##обещ": 4071,
      "одном": 4072,
      "останов": 4073,
      "производство": 4074,
      "канал": 4075,
      "самолета": 4076,
      "##oll": 4077,
      "эксперим": 4078,
      "тяжел": 4079,
      "мне": 4080,
      "##ировки": 4081,
      "полном": 4082,
      "##end": 4083,
      "##ated": 4084,
      "втором": 4085,
      "московского": 4086,
      "андреи": 4087,
      "воскрес": 4088,
      "ес": 4089,
      "сф": 4090,
      "задач": 4091,
      "отстав": 4092,
      "комплекс": 4093,
      "секунд": 4094,
      "бог": 4095,
      "спрос": 4096,
      "##нк": 4097,
      "##чика": 4098,
      "##оке": 4099,
      "##ленные": 4100,
      "##ическое": 4101,
      "опер": 4102,
      "серьез": 4103,
      "проектов": 4104,
      "функ": 4105,
      "корреспонд": 4106,
      "подраздел": 4107,
      "эр": 4108,
      "##вол": 4109,
      "пообещ": 4110,
      "##гон": 4111,
      "изнач": 4112,
      "##есть": 4113,
      "2018": 4114,
      "первое": 4115,
      "испан": 4116,
      "достаточ": 4117,
      "поставки": 4118,
      "интернете": 4119,
      "рассматр": 4120,
      "associ": 4121,
      "55": 4122,
      "ве": 4123,
      "прес": 4124,
      "защ": 4125,
      "решили": 4126,
      "следствен": 4127,
      "журнал": 4128,
      "союз": 4129,
      "бесплат": 4130,
      "культуры": 4131,
      "микроб": 4132,
      "##ерии": 4133,
      "##лач": 4134,
      "##ида": 4135,
      "одобр": 4136,
      "приговор": 4137,
      "встречи": 4138,
      "прошлом": 4139,
      "музыкант": 4140,
      "промышлен": 4141,
      "предприним": 4142,
      "мяч": 4143,
      "цвет": 4144,
      "##пт": 4145,
      "##шиб": 4146,
      "##уть": 4147,
      "##нова": 4148,
      "орг": 4149,
      "выхода": 4150,
      "десять": 4151,
      "ох": 4152,
      "тар": 4153,
      "##фе": 4154,
      "##az": 4155,
      "##икои": 4156,
      "начин": 4157,
      "одну": 4158,
      "сканд": 4159,
      "футболист": 4160,
      "незав": 4161,
      "меньше": 4162,
      "##егистр": 4163,
      "летом": 4164,
      "издатель": 4165,
      "отвеч": 4166,
      "пен": 4167,
      "юр": 4168,
      "##ляции": 4169,
      "первая": 4170,
      "мощ": 4171,
      "##ируется": 4172,
      "переда": 4173,
      "оказались": 4174,
      "служба": 4175,
      "восемь": 4176,
      "##phone": 4177,
      "роман": 4178,
      "##ta": 4179,
      "##ure": 4180,
      "американского": 4181,
      "американская": 4182,
      "машин": 4183,
      "социальнои": 4184,
      "триллиона": 4185,
      "вд": 4186,
      "##рала": 4187,
      "##вал": 4188,
      "##щен": 4189,
      "##ерин": 4190,
      "двум": 4191,
      "экз": 4192,
      "госд": 4193,
      "##ителям": 4194,
      "владимира": 4195,
      "класс": 4196,
      "##атур": 4197,
      "новая": 4198,
      "представителеи": 4199,
      "остан": 4200,
      "основе": 4201,
      "38": 4202,
      "br": 4203,
      "лента": 4204,
      "оск": 4205,
      "уход": 4206,
      "##ратив": 4207,
      "новую": 4208,
      "привлеч": 4209,
      "зарегистр": 4210,
      "министерства": 4211,
      "смерти": 4212,
      "претенд": 4213,
      "37": 4214,
      "генд": 4215,
      "лев": 4216,
      "меры": 4217,
      "##нич": 4218,
      "##анции": 4219,
      "сообщения": 4220,
      "собран": 4221,
      "участием": 4222,
      "штат": 4223,
      "строительство": 4224,
      "дэвид": 4225,
      "хак": 4226,
      "##до": 4227,
      "##еком": 4228,
      "заявление": 4229,
      "вконтакт": 4230,
      "партии": 4231,
      "катего": 4232,
      "приобрет": 4233,
      "корпорации": 4234,
      "вконтакте": 4235,
      "зо": 4236,
      "ошиб": 4237,
      "засед": 4238,
      "выплат": 4239,
      "крист": 4240,
      "##курат": 4241,
      "возбу": 4242,
      "спорта": 4243,
      "роли": 4244,
      "земли": 4245,
      "налич": 4246,
      "инцидент": 4247,
      "вариант": 4248,
      "##тр": 4249,
      "##сел": 4250,
      "##оли": 4251,
      "спуст": 4252,
      "##ционныи": 4253,
      "игру": 4254,
      "игре": 4255,
      "##стрии": 4256,
      "ближаишее": 4257,
      "субб": 4258,
      "сх": 4259,
      "фак": 4260,
      "##енность": 4261,
      "##аба": 4262,
      "ниже": 4263,
      "желез": 4264,
      "неболь": 4265,
      "продукции": 4266,
      "изначально": 4267,
      "fran": 4268,
      "##ившем": 4269,
      "##ительным": 4270,
      "2004": 4271,
      "марк": 4272,
      "незакон": 4273,
      "мвд": 4274,
      "##ight": 4275,
      "ex": 4276,
      "прось": 4277,
      "наказ": 4278,
      "##куль": 4279,
      "##изацию": 4280,
      "создан": 4281,
      "внес": 4282,
      "анон": 4283,
      "жизнь": 4284,
      "associated": 4285,
      "умер": 4286,
      "##лы": 4287,
      "##анс": 4288,
      "##сят": 4289,
      "доч": 4290,
      "передач": 4291,
      "ролик": 4292,
      "динамо": 4293,
      "нынеш": 4294,
      "лен": 4295,
      "мино": 4296,
      "##ry": 4297,
      "прокат": 4298,
      "такого": 4299,
      "##ованию": 4300,
      "участники": 4301,
      "протест": 4302,
      "привлек": 4303,
      "предложил": 4304,
      "вместо": 4305,
      "##нократ": 4306,
      "ситуации": 4307,
      "возвращ": 4308,
      "профессион": 4309,
      "iphone": 4310,
      "se": 4311,
      "увер": 4312,
      "##аза": 4313,
      "резерв": 4314,
      "##ующих": 4315,
      "считается": 4316,
      "различных": 4317,
      "ключ": 4318,
      "зах": 4319,
      "вернуть": 4320,
      "##ity": 4321,
      "основнои": 4322,
      "музея": 4323,
      "сыгра": 4324,
      "свидетель": 4325,
      "ребен": 4326,
      "gro": 4327,
      "##рали": 4328,
      "попрос": 4329,
      "##нос": 4330,
      "##инах": 4331,
      "проп": 4332,
      "##ительного": 4333,
      "##руга": 4334,
      "решил": 4335,
      "граф": 4336,
      "менедж": 4337,
      "вооружении": 4338,
      "превыш": 4339,
      "неоднократ": 4340,
      "дат": 4341,
      "дис": 4342,
      "жал": 4343,
      "комитет": 4344,
      "##енье": 4345,
      "##ows": 4346,
      "крупнеиших": 4347,
      "встреча": 4348,
      "##box": 4349,
      "tele": 4350,
      "##послед": 4351,
      "коммерсантъ": 4352,
      "моз": 4353,
      "##во": 4354,
      "##под": 4355,
      "странах": 4356,
      "коллег": 4357,
      "судеб": 4358,
      "создание": 4359,
      "произвед": 4360,
      "сыг": 4361,
      "международнои": 4362,
      "минуте": 4363,
      "it": 4364,
      "ii": 4365,
      "бель": 4366,
      "вин": 4367,
      "еги": 4368,
      "мад": 4369,
      "тит": 4370,
      "наид": 4371,
      "##иля": 4372,
      "##азд": 4373,
      "##евых": 4374,
      "канала": 4375,
      "устроиств": 4376,
      "сценар": 4377,
      "##назнач": 4378,
      "стерл": 4379,
      "игорь": 4380,
      "pro": 4381,
      "жест": 4382,
      "рэ": 4383,
      "##овер": 4384,
      "предназнач": 4385,
      "редакцию": 4386,
      "нарк": 4387,
      "специалисты": 4388,
      "сократ": 4389,
      "екат": 4390,
      "пан": 4391,
      "чит": 4392,
      "##ram": 4393,
      "##коп": 4394,
      "##ечествен": 4395,
      "расшир": 4396,
      "##ющеи": 4397,
      "##изация": 4398,
      "##уются": 4399,
      "нефтя": 4400,
      "баррель": 4401,
      "гендирек": 4402,
      "отмечают": 4403,
      "##ash": 4404,
      "здоров": 4405,
      "эпиз": 4406,
      "турнира": 4407,
      "47": 4408,
      "ки": 4409,
      "ур": 4410,
      "##ep": 4411,
      "преду": 4412,
      "разных": 4413,
      "серге": 4414,
      "центре": 4415,
      "статьи": 4416,
      "произошло": 4417,
      "базе": 4418,
      "испытания": 4419,
      "микроблог": 4420,
      "bo": 4421,
      "вит": 4422,
      "масс": 4423,
      "пт": 4424,
      "##аже": 4425,
      "##жив": 4426,
      "##ско": 4427,
      "##лиш": 4428,
      "прокурат": 4429,
      "самого": 4430,
      "продав": 4431,
      "принес": 4432,
      "турец": 4433,
      "второе": 4434,
      "станции": 4435,
      "которому": 4436,
      "алког": 4437,
      "кубометров": 4438,
      "искусства": 4439,
      "##гляд": 4440,
      "вскор": 4441,
      "олег": 4442,
      "фили": 4443,
      "##гии": 4444,
      "сочи": 4445,
      "##кое": 4446,
      "новым": 4447,
      "летняя": 4448,
      "покин": 4449,
      "месяца": 4450,
      "52": 4451,
      "ph": 4452,
      "уэ": 4453,
      "фифа": 4454,
      "##ованы": 4455,
      "само": 4456,
      "андж": 4457,
      "2005": 4458,
      "верх": 4459,
      "протяжении": 4460,
      "пользователь": 4461,
      "рынок": 4462,
      "поставку": 4463,
      "обвиня": 4464,
      "студия": 4465,
      "вскоре": 4466,
      "тенд": 4467,
      "##гент": 4468,
      "празд": 4469,
      "##тое": 4470,
      "наити": 4471,
      "##ore": 4472,
      "теле": 4473,
      "могли": 4474,
      "рассказала": 4475,
      "экономики": 4476,
      "книги": 4477,
      "уровень": 4478,
      "лондоне": 4479,
      "версия": 4480,
      "независим": 4481,
      "спустя": 4482,
      "39": 4483,
      "клич": 4484,
      "фоне": 4485,
      "##оры": 4486,
      "оде": 4487,
      "##ющего": 4488,
      "москва": 4489,
      "платеж": 4490,
      "петербурге": 4491,
      "эксперты": 4492,
      "авиакомпании": 4493,
      "wind": 4494,
      "рок": 4495,
      "хим": 4496,
      "##шись": 4497,
      "##енными": 4498,
      "##ани": 4499,
      "##ременно": 4500,
      "исследовании": 4501,
      "доказ": 4502,
      "денег": 4503,
      "вечером": 4504,
      "##авлив": 4505,
      "учре": 4506,
      "медиц": 4507,
      "программа": 4508,
      "массов": 4509,
      "воскресенье": 4510,
      "ниче": 4511,
      "элем": 4512,
      "нат": 4513,
      "##обы": 4514,
      "##изм": 4515,
      "##астро": 4516,
      "##ицу": 4517,
      "##игин": 4518,
      "осна": 4519,
      "королев": 4520,
      "роста": 4521,
      "автомобиль": 4522,
      "телевиз": 4523,
      "механ": 4524,
      "стерлингов": 4525,
      "бом": 4526,
      "геи": 4527,
      "гиб": 4528,
      "сиг": 4529,
      "фан": 4530,
      "##оедин": 4531,
      "испол": 4532,
      "законч": 4533,
      "отказался": 4534,
      "##разв": 4535,
      "долго": 4536,
      "всеи": 4537,
      "2000": 4538,
      "машины": 4539,
      "компьютер": 4540,
      "раионе": 4541,
      "ничего": 4542,
      "##ким": 4543,
      "##ъяв": 4544,
      "прок": 4545,
      "оригин": 4546,
      "получит": 4547,
      "принял": 4548,
      "публикации": 4549,
      "аналит": 4550,
      "егип": 4551,
      "##ема": 4552,
      "нег": 4553,
      "##ивал": 4554,
      "##езда": 4555,
      "работал": 4556,
      "##верг": 4557,
      "систему": 4558,
      "сторон": 4559,
      "ввп": 4560,
      "территор": 4561,
      "норм": 4562,
      "норв": 4563,
      "всемир": 4564,
      "вошли": 4565,
      "инициатив": 4566,
      "group": 4567,
      "неоднократно": 4568,
      "windows": 4569,
      "48": 4570,
      "зим": 4571,
      "золо": 4572,
      "##енту": 4573,
      "экст": 4574,
      "##ируют": 4575,
      "департам": 4576,
      "входит": 4577,
      "контроль": 4578,
      "неизвестно": 4579,
      "##нюю": 4580,
      "столк": 4581,
      "риск": 4582,
      "##ыше": 4583,
      "##ax": 4584,
      "прир": 4585,
      "неуд": 4586,
      "вык": 4587,
      "проч": 4588,
      "свыше": 4589,
      "продаже": 4590,
      "трет": 4591,
      "принять": 4592,
      "турист": 4593,
      "медиа": 4594,
      "оказалось": 4595,
      "конкурса": 4596,
      "леон": 4597,
      "вокруг": 4598,
      "субботу": 4599,
      "лос": 4600,
      "циф": 4601,
      "##енса": 4602,
      "##ерами": 4603,
      "##авшие": 4604,
      "станд": 4605,
      "размест": 4606,
      "еврос": 4607,
      "деб": 4608,
      "завоев": 4609,
      "##ающеи": 4610,
      "аукцион": 4611,
      "кандид": 4612,
      "древ": 4613,
      "##ресс": 4614,
      "##pe": 4615,
      "станов": 4616,
      "однов": 4617,
      "##циях": 4618,
      "##ированы": 4619,
      "inst": 4620,
      "присутств": 4621,
      "исследователи": 4622,
      "возбужд": 4623,
      "хоч": 4624,
      "эд": 4625,
      "##бин": 4626,
      "##енью": 4627,
      "##ениями": 4628,
      "создать": 4629,
      "потен": 4630,
      "бывшего": 4631,
      "автомат": 4632,
      "приняли": 4633,
      "текст": 4634,
      "воины": 4635,
      "автомобилеи": 4636,
      "to": 4637,
      "друз": 4638,
      "##омет": 4639,
      "продл": 4640,
      "##ank": 4641,
      "##les": 4642,
      "делу": 4643,
      "службе": 4644,
      "снят": 4645,
      "твит": 4646,
      "предусматр": 4647,
      "ислам": 4648,
      "анджел": 4649,
      "ту": 4650,
      "##ви": 4651,
      "миллион": 4652,
      "##ony": 4653,
      "##ирование": 4654,
      "##платы": 4655,
      "поддержку": 4656,
      "проходит": 4657,
      "блоге": 4658,
      "глоб": 4659,
      "world": 4660,
      "астро": 4661,
      "кир": 4662,
      "уш": 4663,
      "##зыв": 4664,
      "##ьше": 4665,
      "##шев": 4666,
      "##гар": 4667,
      "##стан": 4668,
      "##лаб": 4669,
      "предъяв": 4670,
      "##ибир": 4671,
      "модели": 4672,
      "скорость": 4673,
      "телевид": 4674,
      "бирже": 4675,
      "виз": 4676,
      "опров": 4677,
      "##оном": 4678,
      "##ys": 4679,
      "##ьм": 4680,
      "##ment": 4681,
      "##есь": 4682,
      "взрыв": 4683,
      "узн": 4684,
      "эффектив": 4685,
      "наркот": 4686,
      "sky": 4687,
      "##филь": 4688,
      "##ившего": 4689,
      "##ича": 4690,
      "##инации": 4691,
      "##ork": 4692,
      "##защит": 4693,
      "проведения": 4694,
      "уголовное": 4695,
      "рестор": 4696,
      "грузов": 4697,
      "швеицар": 4698,
      "бук": 4699,
      "лит": 4700,
      "фр": 4701,
      "шести": 4702,
      "##th": 4703,
      "##ичто": 4704,
      "второго": 4705,
      "следов": 4706,
      "кубка": 4707,
      "пришлось": 4708,
      "движения": 4709,
      "целью": 4710,
      "guard": 4711,
      "41": 4712,
      "ван": 4713,
      "нен": 4714,
      "тим": 4715,
      "##ха": 4716,
      "##тона": 4717,
      "обмен": 4718,
      "корот": 4719,
      "планеты": 4720,
      "системе": 4721,
      "покол": 4722,
      "находятся": 4723,
      "переход": 4724,
      "france": 4725,
      "медицин": 4726,
      "клет": 4727,
      "##стер": 4728,
      "##овыи": 4729,
      "проком": 4730,
      "взаим": 4731,
      "программу": 4732,
      "японии": 4733,
      "мероприятия": 4734,
      "роснефти": 4735,
      "сегодняш": 4736,
      "прокоммент": 4737,
      "див": 4738,
      "##лан": 4739,
      "россииским": 4740,
      "справ": 4741,
      "##ood": 4742,
      "недавно": 4743,
      "александра": 4744,
      "корабля": 4745,
      "электр": 4746,
      "соглашения": 4747,
      "деятельность": 4748,
      "обсужд": 4749,
      "ку": 4750,
      "уж": 4751,
      "составля": 4752,
      "правил": 4753,
      "создании": 4754,
      "занимается": 4755,
      "активов": 4756,
      "соцсети": 4757,
      "собирается": 4758,
      "guardian": 4759,
      "49": 4760,
      "меж": 4761,
      "обслуж": 4762,
      "стив": 4763,
      "раздел": 4764,
      "компанию": 4765,
      "занял": 4766,
      "владе": 4767,
      "превыс": 4768,
      "изменения": 4769,
      "сберб": 4770,
      "пластин": 4771,
      "зел": 4772,
      "ча": 4773,
      "##af": 4774,
      "преж": 4775,
      "перест": 4776,
      "доля": 4777,
      "миллиард": 4778,
      "форвард": 4779,
      "премьера": 4780,
      "конкурс": 4781,
      "корабль": 4782,
      "футбольного": 4783,
      "игроков": 4784,
      "иорк": 4785,
      "никаких": 4786,
      "актриса": 4787,
      "практически": 4788,
      "китая": 4789,
      "достаточно": 4790,
      "44": 4791,
      "меч": 4792,
      "##вали": 4793,
      "##бер": 4794,
      "потому": 4795,
      "##онс": 4796,
      "извин": 4797,
      "##убеж": 4798,
      "турции": 4799,
      "большого": 4800,
      "уточнил": 4801,
      "псих": 4802,
      "встр": 4803,
      "чарт": 4804,
      "##етом": 4805,
      "##рас": 4806,
      "##ивших": 4807,
      "сама": 4808,
      "##ющим": 4809,
      "##бороны": 4810,
      "увол": 4811,
      "техники": 4812,
      "исследование": 4813,
      "британскии": 4814,
      "случаи": 4815,
      "статье": 4816,
      "соответственно": 4817,
      "поступившем": 4818,
      "зарубеж": 4819,
      "директоров": 4820,
      "супер": 4821,
      "записи": 4822,
      "беспилот": 4823,
      "##еин": 4824,
      "##iz": 4825,
      "##man": 4826,
      "потом": 4827,
      "##одеиств": 4828,
      "##авшего": 4829,
      "стаб": 4830,
      "кош": 4831,
      "доп": 4832,
      "деиствующ": 4833,
      "обвинения": 4834,
      "платфор": 4835,
      "входят": 4836,
      "устроиства": 4837,
      "51": 4838,
      "впослед": 4839,
      "жителеи": 4840,
      "##уков": 4841,
      "##дон": 4842,
      "соедин": 4843,
      "##лян": 4844,
      "##егда": 4845,
      "американские": 4846,
      "появились": 4847,
      "крупных": 4848,
      "руководитель": 4849,
      "запас": 4850,
      "большинство": 4851,
      "впоследствии": 4852,
      "код": 4853,
      "нхл": 4854,
      "уиль": 4855,
      "эки": 4856,
      "##оин": 4857,
      "##оже": 4858,
      "доллар": 4859,
      "создания": 4860,
      "неделю": 4861,
      "состоянии": 4862,
      "играх": 4863,
      "бур": 4864,
      "вет": 4865,
      "заплат": 4866,
      "реализ": 4867,
      "поле": 4868,
      "раньше": 4869,
      "имеют": 4870,
      "##ock": 4871,
      "дмитр": 4872,
      "инстру": 4873,
      "минобороны": 4874,
      "встрет": 4875,
      "le": 4876,
      "un": 4877,
      "сед": 4878,
      "чист": 4879,
      "##нему": 4880,
      "##илет": 4881,
      "##есед": 4882,
      "перер": 4883,
      "##ass": 4884,
      "победу": 4885,
      "##uss": 4886,
      "женщин": 4887,
      "воздух": 4888,
      "органов": 4889,
      "ad": 4890,
      "xbox": 4891,
      "лаб": 4892,
      "ущ": 4893,
      "##aw": 4894,
      "##эт": 4895,
      "полаг": 4896,
      "##иле": 4897,
      "##идер": 4898,
      "сведения": 4899,
      "опт": 4900,
      "##щество": 4901,
      "первых": 4902,
      "тому": 4903,
      "намерен": 4904,
      "располаг": 4905,
      "мировои": 4906,
      "андре": 4907,
      "версию": 4908,
      "услуг": 4909,
      "негатив": 4910,
      "гроз": 4911,
      "ил": 4912,
      "круг": 4913,
      "маст": 4914,
      "##нение": 4915,
      "прие": 4916,
      "вып": 4917,
      "##ленныи": 4918,
      "представляет": 4919,
      "##ированных": 4920,
      "участия": 4921,
      "отметила": 4922,
      "возможности": 4923,
      "##иссия": 4924,
      "##agram": 4925,
      "рядом": 4926,
      "населения": 4927,
      "bbc": 4928,
      "sci": 4929,
      "биб": 4930,
      "мю": 4931,
      "оке": 4932,
      "шут": 4933,
      "##виж": 4934,
      "отстран": 4935,
      "выну": 4936,
      "##рока": 4937,
      "какои": 4938,
      "##опар": 4939,
      "сконч": 4940,
      "американских": 4941,
      "появился": 4942,
      "##ams": 4943,
      "опубликовано": 4944,
      "отдых": 4945,
      "генеральныи": 4946,
      "фигур": 4947,
      "дерев": 4948,
      "одновременно": 4949,
      "акад": 4950,
      "губ": 4951,
      "кот": 4952,
      "тура": 4953,
      "##кая": 4954,
      "##ьян": 4955,
      "##ития": 4956,
      "##жде": 4957,
      "##отои": 4958,
      "существен": 4959,
      "самолеты": 4960,
      "европе": 4961,
      "некоторых": 4962,
      "##остоятель": 4963,
      "we": 4964,
      "war": 4965,
      "рав": 4966,
      "##илия": 4967,
      "сопер": 4968,
      "расстоя": 4969,
      "реком": 4970,
      "предложение": 4971,
      "десяти": 4972,
      "требования": 4973,
      "вынужд": 4974,
      "42": 4975,
      "еж": 4976,
      "сал": 4977,
      "##рот": 4978,
      "##цами": 4979,
      "##тв": 4980,
      "##ah": 4981,
      "##итар": 4982,
      "##раг": 4983,
      "отечествен": 4984,
      "##тория": 4985,
      "первен": 4986,
      "ведомости": 4987,
      "##ологи": 4988,
      "целом": 4989,
      "председатель": 4990,
      "коллектив": 4991,
      "64": 4992,
      "мут": 4993,
      "фс": 4994,
      "##nal": 4995,
      "##ету": 4996,
      "##оза": 4997,
      "трек": 4998,
      "принци": 4999,
      "уступ": 5000,
      "150": 5001,
      "сезон": 5002,
      "предприятия": 5003,
      "евросою": 5004,
      "65": 5005,
      "con": 5006,
      "ов": 5007,
      "##нется": 5008,
      "##цу": 5009,
      "##оид": 5010,
      "подк": 5011,
      "##ательных": 5012,
      "##рыт": 5013,
      "началь": 5014,
      "рфс": 5015,
      "партнер": 5016,
      "ближаишие": 5017,
      "##raph": 5018,
      "казах": 5019,
      "свобод": 5020,
      "республики": 5021,
      "анджелес": 5022,
      "##вел": 5023,
      "##фи": 5024,
      "поля": 5025,
      "выяв": 5026,
      "##рош": 5027,
      "устро": 5028,
      "туристов": 5029,
      "##провод": 5030,
      "##ляться": 5031,
      "звезды": 5032,
      "радиост": 5033,
      "заместитель": 5034,
      "fl": 5035,
      "опрос": 5036,
      "рио": 5037,
      "##род": 5038,
      "сверх": 5039,
      "какие": 5040,
      "экономического": 5041,
      "##ung": 5042,
      "италии": 5043,
      "##мотреть": 5044,
      "уничто": 5045,
      "денеж": 5046,
      "расходы": 5047,
      "карьеру": 5048,
      "вт": 5049,
      "лиг": 5050,
      "ядер": 5051,
      "##исл": 5052,
      "возоб": 5053,
      "анализ": 5054,
      "##ируем": 5055,
      "##oom": 5056,
      "форму": 5057,
      "прекращ": 5058,
      "##развития": 5059,
      "литер": 5060,
      "шар": 5061,
      "##елев": 5062,
      "##ектом": 5063,
      "##утся": 5064,
      "собесед": 5065,
      "акс": 5066,
      "последних": 5067,
      "эксплу": 5068,
      "появится": 5069,
      "объявила": 5070,
      "управля": 5071,
      "использование": 5072,
      "тренера": 5073,
      "инвестиции": 5074,
      "весь": 5075,
      "вертолетов": 5076,
      "сюжет": 5077,
      "широк": 5078,
      "instagram": 5079,
      "возобнов": 5080,
      "on": 5081,
      "брат": 5082,
      "мег": 5083,
      "яр": 5084,
      "##овым": 5085,
      "##ань": 5086,
      "##аку": 5087,
      "##иком": 5088,
      "персон": 5089,
      "сообщение": 5090,
      "##ывал": 5091,
      "##ироваться": 5092,
      "##тип": 5093,
      "украина": 5094,
      "показали": 5095,
      "прошед": 5096,
      "прошла": 5097,
      "##нули": 5098,
      "кампании": 5099,
      "барсел": 5100,
      "присоедин": 5101,
      "режиссера": 5102,
      "группе": 5103,
      "похож": 5104,
      "стадион": 5105,
      "пользу": 5106,
      "##ournal": 5107,
      "евгении": 5108,
      "43": 5109,
      "med": 5110,
      "винов": 5111,
      "мил": 5112,
      "сих": 5113,
      "швед": 5114,
      "эл": 5115,
      "##пп": 5116,
      "##оля": 5117,
      "самыи": 5118,
      "195": 5119,
      "##торами": 5120,
      "##ate": 5121,
      "поводу": 5122,
      "##roid": 5123,
      "картин": 5124,
      "оказалась": 5125,
      "севернои": 5126,
      "сериала": 5127,
      "##штаб": 5128,
      "секретарь": 5129,
      "арбитраж": 5130,
      "стандарт": 5131,
      "мел": 5132,
      "хар": 5133,
      "##суд": 5134,
      "##ьш": 5135,
      "##me": 5136,
      "помещ": 5137,
      "##еку": 5138,
      "отра": 5139,
      "##изма": 5140,
      "темпер": 5141,
      "##вести": 5142,
      "##муника": 5143,
      "чемпионов": 5144,
      "россияне": 5145,
      "состоялась": 5146,
      "уровня": 5147,
      "бизнеса": 5148,
      "успех": 5149,
      "задолж": 5150,
      "отсутств": 5151,
      "двумя": 5152,
      "teleg": 5153,
      "cl": 5154,
      "жертв": 5155,
      "##одом": 5156,
      "2020": 5157,
      "сообще": 5158,
      "##ительное": 5159,
      "всегда": 5160,
      "испании": 5161,
      "планш": 5162,
      "ведет": 5163,
      "сборную": 5164,
      "теор": 5165,
      "рассказали": 5166,
      "стоимости": 5167,
      "развитие": 5168,
      "принадлежащ": 5169,
      "семи": 5170,
      "писатель": 5171,
      "расследование": 5172,
      "спектак": 5173,
      "передачи": 5174,
      "46": 5175,
      "лод": 5176,
      "маль": 5177,
      "сут": 5178,
      "сид": 5179,
      "##ене": 5180,
      "поезд": 5181,
      "##лицы": 5182,
      "степ": 5183,
      "##идж": 5184,
      "##иция": 5185,
      "осенью": 5186,
      "посещ": 5187,
      "сделал": 5188,
      "режиме": 5189,
      "presse": 5190,
      "эфире": 5191,
      "килограммов": 5192,
      "академ": 5193,
      "##кина": 5194,
      "годом": 5195,
      "конеч": 5196,
      "новом": 5197,
      "экс": 5198,
      "##ающего": 5199,
      "разработчики": 5200,
      "ind": 5201,
      "##ada": 5202,
      "нанес": 5203,
      "золот": 5204,
      "57": 5205,
      "леб": 5206,
      "фер": 5207,
      "##ler": 5208,
      "##стра": 5209,
      "##овлет": 5210,
      "преи": 5211,
      "выити": 5212,
      "##пресс": 5213,
      "следует": 5214,
      "международного": 5215,
      "специализ": 5216,
      "партн": 5217,
      "боксер": 5218,
      "зоопар": 5219,
      "##овлетвор": 5220,
      "ана": 5221,
      "вред": 5222,
      "ваш": 5223,
      "дос": 5224,
      "еди": 5225,
      "ниж": 5226,
      "улуч": 5227,
      "##ело": 5228,
      "##омин": 5229,
      "обы": 5230,
      "зависим": 5231,
      "британскои": 5232,
      "ведомство": 5233,
      "##ателям": 5234,
      "обязан": 5235,
      "пользователям": 5236,
      "лицензии": 5237,
      "ряда": 5238,
      "персонаж": 5239,
      "зло": 5240,
      "пуб": 5241,
      "##св": 5242,
      "выраж": 5243,
      "самостоятель": 5244,
      "окруж": 5245,
      "банки": 5246,
      "импорт": 5247,
      "оценивается": 5248,
      "девять": 5249,
      "##скорб": 5250,
      "квартале": 5251,
      "телефон": 5252,
      "lif": 5253,
      "мои": 5254,
      "рим": 5255,
      "слиш": 5256,
      "умен": 5257,
      "##te": 5258,
      "##ton": 5259,
      "##ile": 5260,
      "##едение": 5261,
      "##екса": 5262,
      "##уме": 5263,
      "добы": 5264,
      "деиствие": 5265,
      "inter": 5266,
      "строч": 5267,
      "запуск": 5268,
      "греции": 5269,
      "освоб": 5270,
      "улучш": 5271,
      "слишком": 5272,
      "he": 5273,
      "пилот": 5274,
      "сух": 5275,
      "тенн": 5276,
      "чех": 5277,
      "##шему": 5278,
      "заф": 5279,
      "##ляцию": 5280,
      "выше": 5281,
      "реги": 5282,
      "двор": 5283,
      "судь": 5284,
      "остается": 5285,
      "театр": 5286,
      "команду": 5287,
      "рекламу": 5288,
      "планируют": 5289,
      "##ождение": 5290,
      "позволя": 5291,
      "контракта": 5292,
      "третье": 5293,
      "преиму": 5294,
      "56": 5295,
      "оскорб": 5296,
      "урал": 5297,
      "##овом": 5298,
      "##ивания": 5299,
      "одерж": 5300,
      "получат": 5301,
      "посад": 5302,
      "выступления": 5303,
      "креди": 5304,
      "полузащит": 5305,
      "олимпииских": 5306,
      "властеи": 5307,
      "android": 5308,
      "груз": 5309,
      "тих": 5310,
      "##уса": 5311,
      "военнои": 5312,
      "##ече": 5313,
      "минэконом": 5314,
      "аргент": 5315,
      "концер": 5316,
      "янд": 5317,
      "исход": 5318,
      "воды": 5319,
      "произошед": 5320,
      "задержан": 5321,
      "сериал": 5322,
      "\").": 5323,
      "бразилии": 5324,
      "уменьш": 5325,
      "атом": 5326,
      "баш": 5327,
      "иль": 5328,
      "##вы": 5329,
      "##яг": 5330,
      "пош": 5331,
      "##удов": 5332,
      "переч": 5333,
      "компенса": 5334,
      "орбит": 5335,
      "частью": 5336,
      "игров": 5337,
      "запись": 5338,
      "приложение": 5339,
      "опубликовал": 5340,
      "турнир": 5341,
      "сыграет": 5342,
      "сегодняшнии": 5343,
      "##мир": 5344,
      "##ip": 5345,
      "##ue": 5346,
      "##ьев": 5347,
      "##шими": 5348,
      "##ико": 5349,
      "россииском": 5350,
      "новое": 5351,
      "кров": 5352,
      "закона": 5353,
      "суще": 5354,
      "почему": 5355,
      "счету": 5356,
      "лидер": 5357,
      "коммерче": 5358,
      "топлива": 5359,
      "play": 5360,
      "правоохранительных": 5361,
      "(@": 5362,
      "op": 5363,
      "ша": 5364,
      "шаг": 5365,
      "эль": 5366,
      "##лер": 5367,
      "##атар": 5368,
      "подверг": 5369,
      "серд": 5370,
      "194": 5371,
      "среднем": 5372,
      "скр": 5373,
      "должность": 5374,
      "последнее": 5375,
      "никто": 5376,
      "попад": 5377,
      "премию": 5378,
      "коллекции": 5379,
      "нападающии": 5380,
      "экипа": 5381,
      "js": 5382,
      "дем": 5383,
      "##наком": 5384,
      "##ившие": 5385,
      "##анова": 5386,
      "развед": 5387,
      "штата": 5388,
      "пути": 5389,
      "путина": 5390,
      "атмос": 5391,
      "регистра": 5392,
      "альбома": 5393,
      "##ational": 5394,
      "будущем": 5395,
      "соревнования": 5396,
      "локом": 5397,
      "минэкономразвития": 5398,
      "жители": 5399,
      "пя": 5400,
      "чув": 5401,
      "##скоп": 5402,
      "##арев": 5403,
      "обещ": 5404,
      "##ическими": 5405,
      "другими": 5406,
      "##инок": 5407,
      "парлам": 5408,
      "причин": 5409,
      "признал": 5410,
      "журналистов": 5411,
      "цене": 5412,
      "певица": 5413,
      "корпорация": 5414,
      "продуктов": 5415,
      "института": 5416,
      "уничтож": 5417,
      "la": 5418,
      "##мана": 5419,
      "##це": 5420,
      "##ist": 5421,
      "област": 5422,
      "непр": 5423,
      "вынес": 5424,
      "##абр": 5425,
      "2003": 5426,
      "кореи": 5427,
      "государство": 5428,
      "лучшии": 5429,
      "поисков": 5430,
      "бразиль": 5431,
      "приступ": 5432,
      "оператив": 5433,
      "бомб": 5434,
      "one": 5435,
      "ps": 5436,
      "бут": 5437,
      "миг": 5438,
      "простран": 5439,
      "##естер": 5440,
      "проиг": 5441,
      "следствия": 5442,
      "общая": 5443,
      "московскому": 5444,
      "попали": 5445,
      "вышед": 5446,
      "условия": 5447,
      "теме08": 5448,
      "ситуация": 5449,
      "agence": 5450,
      "ва": 5451,
      "дю": 5452,
      "ми": 5453,
      "##нения": 5454,
      "##бр": 5455,
      "прох": 5456,
      "россиеи": 5457,
      "военных": 5458,
      "опл": 5459,
      "часто": 5460,
      "материал": 5461,
      "марки": 5462,
      "показатель": 5463,
      "руководителя": 5464,
      "##old": 5465,
      "британского": 5466,
      "километ": 5467,
      "мужчин": 5468,
      "прибыль": 5469,
      "дебют": 5470,
      "##ывали": 5471,
      "выступал": 5472,
      "канале": 5473,
      "карл": 5474,
      "причем": 5475,
      "рубеж": 5476,
      "смогли": 5477,
      "письмо": 5478,
      "истребителеи": 5479,
      "##бург": 5480,
      "публич": 5481,
      "локомотив": 5482,
      "eu": 5483,
      "сами": 5484,
      "ум": 5485,
      "##метров": 5486,
      "##ud": 5487,
      "наслед": 5488,
      "##ола": 5489,
      "##ини": 5490,
      "##ляция": 5491,
      "реп": 5492,
      "руководством": 5493,
      "забил": 5494,
      "состоялся": 5495,
      "лица": 5496,
      "семеи": 5497,
      "прежде": 5498,
      "глуб": 5499,
      "оснащ": 5500,
      "бит": 5501,
      "сд": 5502,
      "##сен": 5503,
      "##ереж": 5504,
      "##оса": 5505,
      "перем": 5506,
      "##озмож": 5507,
      "изданию": 5508,
      "неделе": 5509,
      "связано": 5510,
      "выступает": 5511,
      "намерены": 5512,
      "песни": 5513,
      "black": 5514,
      "обычно": 5515,
      "борту": 5516,
      "втб": 5517,
      "оформ": 5518,
      "честь": 5519,
      "##ok": 5520,
      "##ron": 5521,
      "##дар": 5522,
      "поним": 5523,
      "накоп": 5524,
      "главнои": 5525,
      "состояние": 5526,
      "радио": 5527,
      "увеличить": 5528,
      "итар": 5529,
      "следующии": 5530,
      "воиск": 5531,
      "защиты": 5532,
      "фестиваля": 5533,
      "распор": 5534,
      "законодатель": 5535,
      "знамени": 5536,
      "экстрем": 5537,
      "рис": 5538,
      "фил": 5539,
      "военного": 5540,
      "деиствии": 5541,
      "намерена": 5542,
      "многих": 5543,
      "налогов": 5544,
      "опроверг": 5545,
      "telegraph": 5546,
      "века": 5547,
      "охран": 5548,
      "угл": 5549,
      "##ицион": 5550,
      "##ченко": 5551,
      "поправ": 5552,
      "поруч": 5553,
      "##алия": 5554,
      "разрабат": 5555,
      "долю": 5556,
      "##пуск": 5557,
      "полет": 5558,
      "музеи": 5559,
      "выпущ": 5560,
      "героя": 5561,
      "финансовых": 5562,
      "номер": 5563,
      "преступления": 5564,
      "выиграл": 5565,
      "претенз": 5566,
      "холдинг": 5567,
      "исполня": 5568,
      "вра": 5569,
      "гаг": 5570,
      "днк": 5571,
      "юрии": 5572,
      "##зе": 5573,
      "пото": 5574,
      "##интер": 5575,
      "оба": 5576,
      "переи": 5577,
      "подар": 5578,
      "военные": 5579,
      "##онач": 5580,
      "работают": 5581,
      "##начала": 5582,
      "марш": 5583,
      "парал": 5584,
      "деиствительно": 5585,
      "отказались": 5586,
      "подписал": 5587,
      "употреб": 5588,
      "вопросы": 5589,
      "опубликована": 5590,
      "женщины": 5591,
      "устроиство": 5592,
      "совместно": 5593,
      "афр": 5594,
      "порядка": 5595,
      "солнеч": 5596,
      "адвокат": 5597,
      "сергея": 5598,
      "sams": 5599,
      "##ear": 5600,
      "##одных": 5601,
      "##лига": 5602,
      "##иваются": 5603,
      "##ожен": 5604,
      "разб": 5605,
      "всю": 5606,
      "заявлении": 5607,
      "уволь": 5608,
      "исч": 5609,
      "назвали": 5610,
      "предложили": 5611,
      "отношения": 5612,
      "редактор": 5613,
      "множе": 5614,
      "соответствии": 5615,
      "твор": 5616,
      "вертол": 5617,
      "снижение": 5618,
      "одноим": 5619,
      "ирланд": 5620,
      "подробности": 5621,
      "седьм": 5622,
      "доме": 5623,
      "питер": 5624,
      "сначала": 5625,
      "##ицию": 5626,
      "##поз": 5627,
      "##щики": 5628,
      "##ver": 5629,
      "ста": 5630,
      "долг": 5631,
      "заявлял": 5632,
      "провели": 5633,
      "объясня": 5634,
      "повтор": 5635,
      "футбола": 5636,
      "условии": 5637,
      "называем": 5638,
      "##раструкт": 5639,
      "клиентов": 5640,
      "потерп": 5641,
      "смерт": 5642,
      "основана": 5643,
      "минимум": 5644,
      "кризиса": 5645,
      "лабора": 5646,
      "лебед": 5647,
      "53": 5648,
      "mus": 5649,
      "дже": 5650,
      "крем": 5651,
      "##oy": 5652,
      "##sc": 5653,
      "##еиро": 5654,
      "##ивали": 5655,
      "прост": 5656,
      "перел": 5657,
      "конк": 5658,
      "процед": 5659,
      "##уне": 5660,
      "##ющая": 5661,
      "газете": 5662,
      "числа": 5663,
      "никогда": 5664,
      "девоч": 5665,
      "момента": 5666,
      "изображение": 5667,
      "сотруднич": 5668,
      "невозмож": 5669,
      "тюрь": 5670,
      "происходит": 5671,
      "поверхности": 5672,
      "террорист": 5673,
      "категории": 5674,
      "жалоб": 5675,
      "01": 5676,
      "лат": 5677,
      "наг": 5678,
      "вылож": 5679,
      "##очнои": 5680,
      "плав": 5681,
      "##озн": 5682,
      "дефиц": 5683,
      "джор": 5684,
      "владел": 5685,
      "##ick": 5686,
      "основном": 5687,
      "прошел": 5688,
      "здесь": 5689,
      "скорее": 5690,
      "масштаб": 5691,
      "обязатель": 5692,
      "художествен": 5693,
      "инфраструкт": 5694,
      "хокке": 5695,
      "объяснил": 5696,
      "подозр": 5697,
      "свободы": 5698,
      "возрасте": 5699,
      "израиль": 5700,
      "поколения": 5701,
      "существует": 5702,
      "лик": 5703,
      "##твор": 5704,
      "##имости": 5705,
      "изготов": 5706,
      "реак": 5707,
      "всему": 5708,
      "##новения": 5709,
      "человече": 5710,
      "делать": 5711,
      "недель": 5712,
      "##ящих": 5713,
      "сексу": 5714,
      "португ": 5715,
      "завершилась": 5716,
      "знаком": 5717,
      "значительно": 5718,
      "напомин": 5719,
      "##berg": 5720,
      "белоруссии": 5721,
      "теннис": 5722,
      "samsung": 5723,
      "га": 5724,
      "##зя": 5725,
      "##ust": 5726,
      "##ds": 5727,
      "##»,": 5728,
      "##иты": 5729,
      "##итов": 5730,
      "##инград": 5731,
      "##лир": 5732,
      "##пре": 5733,
      "аварии": 5734,
      "местор": 5735,
      "бренда": 5736,
      "возможно": 5737,
      "службу": 5738,
      "управление": 5739,
      "##нув": 5740,
      "четверт": 5741,
      "позиции": 5742,
      "берег": 5743,
      "пришли": 5744,
      "шве": 5745,
      "якобы": 5746,
      "корреспондент": 5747,
      "джордж": 5748,
      "59": 5749,
      "wh": 5750,
      "##виг": 5751,
      "##илер": 5752,
      "##инскии": 5753,
      "##оссии": 5754,
      "отзыв": 5755,
      "##нику": 5756,
      "инжен": 5757,
      "колон": 5758,
      "суде": 5759,
      "завод": 5760,
      "офис": 5761,
      "рыб": 5762,
      "программе": 5763,
      "угроз": 5764,
      "1990": 5765,
      "атак": 5766,
      "назначен": 5767,
      "культур": 5768,
      "статист": 5769,
      "означ": 5770,
      "пассажир": 5771,
      "холдинга": 5772,
      "церемонии": 5773,
      "калифор": 5774,
      "приходится": 5775,
      "потенциаль": 5776,
      "58": 5777,
      "бен": 5778,
      "вести": 5779,
      "миру": 5780,
      "мульт": 5781,
      "##ire": 5782,
      "##энер": 5783,
      "##рак": 5784,
      "##ствуют": 5785,
      "перек": 5786,
      "##нике": 5787,
      "последним": 5788,
      "связан": 5789,
      "известныи": 5790,
      "##стрел": 5791,
      "номин": 5792,
      "называется": 5793,
      "социальных": 5794,
      "мероприятии": 5795,
      "ресурс": 5796,
      "хорошо": 5797,
      "третии": 5798,
      "sup": 5799,
      "ну": 5800,
      "чел": 5801,
      "##ox": 5802,
      "##др": 5803,
      "##онав": 5804,
      "##емп": 5805,
      "предпоч": 5806,
      "самом": 5807,
      "##ang": 5808,
      "удовлетвор": 5809,
      "добыч": 5810,
      "центроб": 5811,
      "##онос": 5812,
      "европеиских": 5813,
      "товаров": 5814,
      "газпрома": 5815,
      "роснефть": 5816,
      "услуги": 5817,
      "оружия": 5818,
      "gam": 5819,
      "nat": 5820,
      "гри": 5821,
      "му": 5822,
      "##цам": 5823,
      "##ович": 5824,
      "##луш": 5825,
      "##леннои": 5826,
      "проидут": 5827,
      "представлены": 5828,
      "##ясь": 5829,
      "поклон": 5830,
      "картине": 5831,
      "##шеися": 5832,
      "##ефа": 5833,
      "народ": 5834,
      "молодеж": 5835,
      "комментар": 5836,
      "иностранных": 5837,
      "окончатель": 5838,
      "списке": 5839,
      "ежегодно": 5840,
      "просьбои": 5841,
      "одежды": 5842,
      "сутки": 5843,
      "ино": 5844,
      "##ация": 5845,
      "преп": 5846,
      "сосед": 5847,
      "зач": 5848,
      "##иваться": 5849,
      "комиссии": 5850,
      "плох": 5851,
      "украш": 5852,
      "квантов": 5853,
      "атлет": 5854,
      "популярных": 5855,
      "боевых": 5856,
      "строительства": 5857,
      "утверждает": 5858,
      "##надзор": 5859,
      "придется": 5860,
      "выразил": 5861,
      "традицион": 5862,
      "благотвор": 5863,
      "уильям": 5864,
      "конкрет": 5865,
      "вар": 5866,
      "лив": 5867,
      "нтв": 5868,
      "цит": 5869,
      "шан": 5870,
      "##нию": 5871,
      "##кими": 5872,
      "##едии": 5873,
      "##инского": 5874,
      "соз": 5875,
      "##альными": 5876,
      "##ant": 5877,
      "2002": 5878,
      "известных": 5879,
      "этапе": 5880,
      "##бират": 5881,
      "мутко": 5882,
      "ке": 5883,
      "##рост": 5884,
      "##сти": 5885,
      "##иками": 5886,
      "переп": 5887,
      "##ованных": 5888,
      "опыт": 5889,
      "##опера": 5890,
      "море": 5891,
      "телеком": 5892,
      "документы": 5893,
      "уголовного": 5894,
      "##пользов": 5895,
      "регулярно": 5896,
      "met": 5897,
      "##мат": 5898,
      "##еда": 5899,
      "##еис": 5900,
      "##аса": 5901,
      "прояв": 5902,
      "подход": 5903,
      "оппоз": 5904,
      "##циями": 5905,
      "президентом": 5906,
      "заблок": 5907,
      "##ателями": 5908,
      "номинации": 5909,
      "хотел": 5910,
      "открытие": 5911,
      "южнои": 5912,
      "иорке": 5913,
      "роском": 5914,
      "63": 5915,
      "id": 5916,
      "sm": 5917,
      "##pr": 5918,
      "##ерба": 5919,
      "сопров": 5920,
      "##ляли": 5921,
      "подряд": 5922,
      "##ована": 5923,
      "##ственнои": 5924,
      "##новь": 5925,
      "##are": 5926,
      "столич": 5927,
      "##усов": 5928,
      "повыс": 5929,
      "герои": 5930,
      "московскии": 5931,
      "активно": 5932,
      "статья": 5933,
      "дорож": 5934,
      "лауре": 5935,
      "расследования": 5936,
      "дивиз": 5937,
      "бомбард": 5938,
      "ликвид": 5939,
      "вновь": 5940,
      "дожд": 5941,
      "ом": 5942,
      "си": 5943,
      "флаг": 5944,
      "##лист": 5945,
      "плюс": 5946,
      "антон": 5947,
      "главную": 5948,
      "брю": 5949,
      "##ующие": 5950,
      "говорит": 5951,
      "установить": 5952,
      "финансовои": 5953,
      "международных": 5954,
      "встрече": 5955,
      "лучше": 5956,
      "любим": 5957,
      "банкрот": 5958,
      "происше": 5959,
      "сроки": 5960,
      "выпустила": 5961,
      "приложения": 5962,
      "\"),": 5963,
      "съемки": 5964,
      "ситуацию": 5965,
      "подтвердил": 5966,
      "жанеиро": 5967,
      "взаимодеиств": 5968,
      "media": 5969,
      "иму": 5970,
      "мотив": 5971,
      "##раш": 5972,
      "##омн": 5973,
      "##ором": 5974,
      "##оте": 5975,
      "разд": 5976,
      "##инге": 5977,
      "меди": 5978,
      "большая": 5979,
      "поставок": 5980,
      "авторов": 5981,
      "указывает": 5982,
      "кораблеи": 5983,
      "микро": 5984,
      "проблемы": 5985,
      "внутри": 5986,
      "хозяи": 5987,
      "членов": 5988,
      "слух": 5989,
      "краснодар": 5990,
      "возбуждено": 5991,
      "скончался": 5992,
      "03": 5993,
      "кав": 5994,
      "лот": 5995,
      "мах": 5996,
      "уда": 5997,
      "##ждают": 5998,
      "отр": 5999,
      "отб": 6000,
      "учит": 6001,
      "первонач": 6002,
      "проекте": 6003,
      "занят": 6004,
      "остальные": 6005,
      "штаб": 6006,
      "матчах": 6007,
      "девят": 6008,
      "попал": 6009,
      "третьем": 6010,
      "##нулся": 6011,
      "приобрести": 6012,
      "необходимости": 6013,
      "##грала": 6014,
      "выяснилось": 6015,
      "эксплуата": 6016,
      "температ": 6017,
      "вашинг": 6018,
      "sony": 6019,
      "тип": 6020,
      "##жется": 6021,
      "##pl": 6022,
      "нашеи": 6023,
      "##еки": 6024,
      "конф": 6025,
      "привед": 6026,
      "агентству": 6027,
      "находился": 6028,
      "предложения": 6029,
      "отказаться": 6030,
      "третьеи": 6031,
      "вооружение": 6032,
      "реитинге": 6033,
      "лаин": 6034,
      "книга": 6035,
      "девушка": 6036,
      "сфере": 6037,
      "астроном": 6038,
      "региона": 6039,
      "исчез": 6040,
      "99": 6041,
      "bank": 6042,
      "par": 6043,
      "лес": 6044,
      "ног": 6045,
      "печат": 6046,
      "##нит": 6047,
      "##тен": 6048,
      "##ff": 6049,
      "##..": 6050,
      "##енов": 6051,
      "##овора": 6052,
      "##еме": 6053,
      "##амет": 6054,
      "подня": 6055,
      "свад": 6056,
      "одино": 6057,
      "##ительная": 6058,
      "долгов": 6059,
      "времен": 6060,
      "##полня": 6061,
      "##ессу": 6062,
      "2001": 6063,
      "заняла": 6064,
      "париж": 6065,
      "##amb": 6066,
      "ростов": 6067,
      "аппарата": 6068,
      "валюты": 6069,
      "экраны": 6070,
      "дисквали": 6071,
      "падение": 6072,
      "актрис": 6073,
      "пассажиров": 6074,
      "администрации": 6075,
      "выкуп": 6076,
      "вмс": 6077,
      "коль": 6078,
      "млад": 6079,
      "мус": 6080,
      "мекс": 6081,
      "сель": 6082,
      "сант": 6083,
      "поток": 6084,
      "##емых": 6085,
      "переш": 6086,
      "##ительную": 6087,
      "##раты": 6088,
      "двое": 6089,
      "тела": 6090,
      "материала": 6091,
      "организаторы": 6092,
      "выступил": 6093,
      "оборон": 6094,
      "использования": 6095,
      "национального": 6096,
      "##раться": 6097,
      "здания": 6098,
      "нарушении": 6099,
      "доходы": 6100,
      "школь": 6101,
      "смартфон": 6102,
      "погибли": 6103,
      "радиостанции": 6104,
      "05": 6105,
      "gl": 6106,
      "ними": 6107,
      "##лии": 6108,
      "##естр": 6109,
      "##ываются": 6110,
      "##очных": 6111,
      "продемонстр": 6112,
      "моно": 6113,
      "последнеи": 6114,
      "##нице": 6115,
      "взлом": 6116,
      "парк": 6117,
      "лучшим": 6118,
      "вывод": 6119,
      "символ": 6120,
      "флота": 6121,
      "падения": 6122,
      "крыма": 6123,
      "спартак": 6124,
      "конфликт": 6125,
      "dr": 6126,
      "ne": 6127,
      "рб": 6128,
      "рев": 6129,
      "##ука": 6130,
      "##рис": 6131,
      "##io": 6132,
      "##ib": 6133,
      "##ату": 6134,
      "##ельных": 6135,
      "##езде": 6136,
      "подал": 6137,
      "##ina": 6138,
      "##актив": 6139,
      "разработки": 6140,
      "квад": 6141,
      "международныи": 6142,
      "проведет": 6143,
      "историю": 6144,
      "набрал": 6145,
      "капитал": 6146,
      "департамента": 6147,
      "фсб": 6148,
      "претензии": 6149,
      "54": 6150,
      "демонстр": 6151,
      "нидер": 6152,
      "пас": 6153,
      "##мента": 6154,
      "##ыл": 6155,
      "##иат": 6156,
      "##зак": 6157,
      "##ek": 6158,
      "##ши": 6159,
      "выгляд": 6160,
      "учеб": 6161,
      "мош": 6162,
      "правила": 6163,
      "саитов": 6164,
      "130": 6165,
      "победы": 6166,
      "необыч": 6167,
      "борис": 6168,
      "клиент": 6169,
      "расходов": 6170,
      "комплекса": 6171,
      "##уя": 6172,
      "##как": 6173,
      "##qu": 6174,
      "прол": 6175,
      "##едом": 6176,
      "застав": 6177,
      "##ившая": 6178,
      "##изы": 6179,
      "##истан": 6180,
      "##ens": 6181,
      "##ирована": 6182,
      "органы": 6183,
      "актера": 6184,
      "произведения": 6185,
      "установили": 6186,
      "заболев": 6187,
      "история": 6188,
      "журналисты": 6189,
      "режиссером": 6190,
      "артист": 6191,
      "супруг": 6192,
      "купить": 6193,
      "bloom": 6194,
      "пакет": 6195,
      "события": 6196,
      "путешествен": 6197,
      "хочет": 6198,
      "at": 6199,
      "her": 6200,
      "post": 6201,
      "бег": 6202,
      "держ": 6203,
      "месс": 6204,
      "хищ": 6205,
      "##нал": 6206,
      "##зав": 6207,
      "##яется": 6208,
      "##ix": 6209,
      "##ner": 6210,
      "##by": 6211,
      "ори": 6212,
      "проекты": 6213,
      "появилось": 6214,
      "сценарии": 6215,
      "текущем": 6216,
      "нашли": 6217,
      "утром": 6218,
      "защищ": 6219,
      "титул": 6220,
      "твиттер": 6221,
      "творче": 6222,
      "95": 6223,
      "бу": 6224,
      "боб": 6225,
      "гу": 6226,
      "мид": 6227,
      "пик": 6228,
      "фас": 6229,
      "##ебря": 6230,
      "комплект": 6231,
      "серебря": 6232,
      "анг": 6233,
      "##есса": 6234,
      "местных": 6235,
      "объявили": 6236,
      "оператора": 6237,
      "упал": 6238,
      "нарушение": 6239,
      "содержание": 6240,
      "государственнои": 6241,
      "выпустить": 6242,
      "абс": 6243,
      "относительно": 6244,
      "зависимости": 6245,
      "euro": 6246,
      "##интерес": 6247,
      "journal": 6248,
      "лаз": 6249,
      "нель": 6250,
      "скуль": 6251,
      "##опол": 6252,
      "##зора": 6253,
      "##анг": 6254,
      "##аннои": 6255,
      "##анная": 6256,
      "##оих": 6257,
      "зас": 6258,
      "##прои": 6259,
      "предел": 6260,
      "##ственных": 6261,
      "финала": 6262,
      "своими": 6263,
      "смот": 6264,
      "##ающим": 6265,
      "марс": 6266,
      "надо": 6267,
      "командои": 6268,
      "финансового": 6269,
      "##ащих": 6270,
      "мобильных": 6271,
      "прекрат": 6272,
      "конструк": 6273,
      "объектов": 6274,
      "металл": 6275,
      "новостеи": 6276,
      "владеет": 6277,
      "отрасли": 6278,
      "bloomberg": 6279,
      "73": 6280,
      "col": 6281,
      "york": 6282,
      "куда": 6283,
      "##lin": 6284,
      "##пи": 6285,
      "##енному": 6286,
      "##анавлив": 6287,
      "##дачи": 6288,
      "каких": 6289,
      "допуст": 6290,
      "заявления": 6291,
      "##ежать": 6292,
      "саудов": 6293,
      "столицы": 6294,
      "голланд": 6295,
      "помощь": 6296,
      "любов": 6297,
      "масса": 6298,
      "утверждают": 6299,
      "семьи": 6300,
      "различные": 6301,
      "##москов": 6302,
      "предположительно": 6303,
      "me": 6304,
      "оа": 6305,
      "##сия": 6306,
      "##bes": 6307,
      "##ереи": 6308,
      "развер": 6309,
      "австрии": 6310,
      "начало": 6311,
      "болез": 6312,
      "создана": 6313,
      "взят": 6314,
      "класса": 6315,
      "животное": 6316,
      "просмот": 6317,
      "глаз": 6318,
      "копии": 6319,
      "функцион": 6320,
      "пообещал": 6321,
      "анонс": 6322,
      "библи": 6323,
      "самостоятельно": 6324,
      "fin": 6325,
      "is": 6326,
      "russ": 6327,
      "улице": 6328,
      "##цел": 6329,
      "##ach": 6330,
      "##21": 6331,
      "награ": 6332,
      "##ортер": 6333,
      "##амб": 6334,
      "##амер": 6335,
      "непос": 6336,
      "подмосков": 6337,
      "##ечения": 6338,
      "составили": 6339,
      "материалов": 6340,
      "фильмы": 6341,
      "производитель": 6342,
      "##ителями": 6343,
      "напит": 6344,
      "стоимостью": 6345,
      "номере": 6346,
      "билеты": 6347,
      "экспертов": 6348,
      "forbes": 6349,
      "костю": 6350,
      "восьми": 6351,
      "тариф": 6352,
      "##произв": 6353,
      "us": 6354,
      "боя": 6355,
      "делов": 6356,
      "ремон": 6357,
      "##уки": 6358,
      "##шин": 6359,
      "##щика": 6360,
      "##эл": 6361,
      "##ерам": 6362,
      "обит": 6363,
      "подрост": 6364,
      "такая": 6365,
      "##жду": 6366,
      "миллиметров": 6367,
      "продать": 6368,
      "летнеи": 6369,
      "начать": 6370,
      "планиров": 6371,
      "госпит": 6372,
      "недоволь": 6373,
      "суммы": 6374,
      "заниматься": 6375,
      "установлен": 6376,
      "теме14": 6377,
      "веснои": 6378,
      "генерального": 6379,
      "зрения": 6380,
      "манч": 6381,
      "сокращение": 6382,
      "линии": 6383,
      "360": 6384,
      "борьбы": 6385,
      "борьбе": 6386,
      "гостин": 6387,
      "высказыв": 6388,
      "преслед": 6389,
      "оскар": 6390,
      "бельгии": 6391,
      "шаиб": 6392,
      "непосред": 6393,
      "66": 6394,
      "dis": 6395,
      "ios": 6396,
      "ser": 6397,
      "бак": 6398,
      "миш": 6399,
      "##атся": 6400,
      "##асов": 6401,
      "всел": 6402,
      "##арова": 6403,
      "другим": 6404,
      "##ающая": 6405,
      "деле": 6406,
      "отключ": 6407,
      "государств": 6408,
      "##ews": 6409,
      "британская": 6410,
      "поддержки": 6411,
      "метод": 6412,
      "этапа": 6413,
      "северо": 6414,
      "федеральнои": 6415,
      "обеспечения": 6416,
      "tech": 6417,
      "реализации": 6418,
      "депутат": 6419,
      "виктор": 6420,
      "олимпиады": 6421,
      "неудач": 6422,
      "ем": 6423,
      "кин": 6424,
      "ло": 6425,
      "мкс": 6426,
      "опр": 6427,
      "##читан": 6428,
      "##por": 6429,
      "##стон": 6430,
      "обув": 6431,
      "пропуст": 6432,
      "концу": 6433,
      "тепл": 6434,
      "разработке": 6435,
      "##пределя": 6436,
      "проведение": 6437,
      "родствен": 6438,
      "силы": 6439,
      "художника": 6440,
      "обеспечить": 6441,
      "роск": 6442,
      "аксессу": 6443,
      "яндекс": 6444,
      "рбк": 6445,
      "куз": 6446,
      "##eing": 6447,
      "##жал": 6448,
      "##пов": 6449,
      "соч": 6450,
      "общества": 6451,
      "приглаш": 6452,
      "##рова": 6453,
      "решила": 6454,
      "издании": 6455,
      "известен": 6456,
      "##ницеи": 6457,
      "прошли": 6458,
      "доклад": 6459,
      "инду": 6460,
      "усил": 6461,
      "политики": 6462,
      "мужчины": 6463,
      "препарат": 6464,
      "публика": 6465,
      "##ction": 6466,
      "аноним": 6467,
      "превышает": 6468,
      "территорию": 6469,
      "##атом": 6470,
      "##елл": 6471,
      "##авшая": 6472,
      "##имп": 6473,
      "##торе": 6474,
      "##ично": 6475,
      "##иду": 6476,
      "предм": 6477,
      "предсказ": 6478,
      "##звуч": 6479,
      "##очь": 6480,
      "полета": 6481,
      "состава": 6482,
      "местные": 6483,
      "адмир": 6484,
      "разработку": 6485,
      "победитель": 6486,
      "активы": 6487,
      "клин": 6488,
      "точки": 6489,
      "легко": 6490,
      "спортсменов": 6491,
      "магазина": 6492,
      "проверки": 6493,
      "эффект": 6494,
      "предусмотр": 6495,
      "телевизион": 6496,
      "чаще": 6497,
      "добычи": 6498,
      "век": 6499,
      "пил": 6500,
      "синг": 6501,
      "ха": 6502,
      "чт": 6503,
      "юрид": 6504,
      "##ii": 6505,
      "##ly": 6506,
      "##еде": 6507,
      "отлож": 6508,
      "прото": 6509,
      "##прод": 6510,
      "самые": 6511,
      "достиж": 6512,
      "посел": 6513,
      "открыв": 6514,
      "##стоятель": 6515,
      "команде": 6516,
      "штате": 6517,
      "моря": 6518,
      "доступа": 6519,
      "stre": 6520,
      "запущ": 6521,
      "снимки": 6522,
      "принимать": 6523,
      "письма": 6524,
      "выросла": 6525,
      "super": 6526,
      "смотр": 6527,
      "live": 6528,
      "бон": 6529,
      "врач": 6530,
      "эв": 6531,
      "##лод": 6532,
      "##кон": 6533,
      "##сид": 6534,
      "##анного": 6535,
      "наса": 6536,
      "##иксирован": 6537,
      "##ждении": 6538,
      "##ital": 6539,
      "маи": 6540,
      "черном": 6541,
      "основных": 6542,
      "торги": 6543,
      "дважды": 6544,
      "град": 6545,
      "250": 6546,
      "##ождении": 6547,
      "сын": 6548,
      "метра": 6549,
      "водои": 6550,
      "выводу": 6551,
      "мэр": 6552,
      "копе": 6553,
      "гарант": 6554,
      "флор": 6555,
      "восьм": 6556,
      "подозреваем": 6557,
      "филипп": 6558,
      "норвег": 6559,
      "оптим": 6560,
      "евросоюза": 6561,
      "tr": 6562,
      "паль": 6563,
      "ток": 6564,
      "твер": 6565,
      "уефа": 6566,
      "##банк": 6567,
      "##da": 6568,
      "##анского": 6569,
      "отч": 6570,
      "отчет": 6571,
      "##истратив": 6572,
      "##очного": 6573,
      "играть": 6574,
      "решении": 6575,
      "помочь": 6576,
      "группу": 6577,
      "##стоит": 6578,
      "предприятии": 6579,
      "товар": 6580,
      "административ": 6581,
      "сотрудничества": 6582,
      "org": 6583,
      "boeing": 6584,
      "покинул": 6585,
      "##лянд": 6586,
      "губерна": 6587,
      "800": 6588,
      "sy": 6589,
      "лист": 6590,
      "пуш": 6591,
      "рич": 6592,
      "ссс": 6593,
      "##евид": 6594,
      "##аясь": 6595,
      "##ink": 6596,
      "газо": 6597,
      "офф": 6598,
      "маикл": 6599,
      "##oun": 6600,
      "##asa": 6601,
      "состоянию": 6602,
      "намерении": 6603,
      "китае": 6604,
      "антид": 6605,
      "происх": 6606,
      "специалистов": 6607,
      "возглавил": 6608,
      "полицеиские": 6609,
      "бронзов": 6610,
      "кризис": 6611,
      "анато": 6612,
      "600": 6613,
      "арав": 6614,
      "бед": 6615,
      "всп": 6616,
      "влож": 6617,
      "лек": 6618,
      "мск": 6619,
      "милл": 6620,
      "рож": 6621,
      "##буд": 6622,
      "##line": 6623,
      "##bs": 6624,
      "быстро": 6625,
      "подс": 6626,
      "предстоит": 6627,
      "дочь": 6628,
      "прием": 6629,
      "получать": 6630,
      "##ari": 6631,
      "дешев": 6632,
      "представила": 6633,
      "##ированные": 6634,
      "собир": 6635,
      "собрал": 6636,
      "резко": 6637,
      "полицию": 6638,
      "футболиста": 6639,
      "##рома": 6640,
      "курорт": 6641,
      "лучших": 6642,
      "журналистам": 6643,
      "теме13": 6644,
      "покупку": 6645,
      "востоке": 6646,
      "песен": 6647,
      "преод": 6648,
      "ответственность": 6649,
      "предупре": 6650,
      "атмосф": 6651,
      "music": 6652,
      "ap": 6653,
      "cn": 6654,
      "net": 6655,
      "pc": 6656,
      "днем": 6657,
      "мок": 6658,
      "оль": 6659,
      "тре": 6660,
      "##ice": 6661,
      "##ануне": 6662,
      "##аре": 6663,
      "##икла": 6664,
      "##ислав": 6665,
      "##альному": 6666,
      "##прок": 6667,
      "подорож": 6668,
      "##адж": 6669,
      "спонс": 6670,
      "##умышлен": 6671,
      "принц": 6672,
      "посмотреть": 6673,
      "приват": 6674,
      "ведется": 6675,
      "городов": 6676,
      "космического": 6677,
      "документов": 6678,
      "специально": 6679,
      "ограничения": 6680,
      "мероприятие": 6681,
      "коллекцию": 6682,
      "коллектива": 6683,
      "мадрид": 6684,
      "екатерин": 6685,
      "кличко": 6686,
      "ущерб": 6687,
      "рекоменд": 6688,
      "ссср": 6689,
      "76": 6690,
      "mc": 6691,
      "вир": 6692,
      "дов": 6693,
      "дата": 6694,
      "мнение": 6695,
      "нел": 6696,
      "сно": 6697,
      "цв": 6698,
      "##чат": 6699,
      "##тограф": 6700,
      "##ируя": 6701,
      "друга": 6702,
      "рассчитан": 6703,
      "киноте": 6704,
      "##ионом": 6705,
      "петербурга": 6706,
      "европеиского": 6707,
      "дополнительные": 6708,
      "подобные": 6709,
      "исследователь": 6710,
      "эфир": 6711,
      "архит": 6712,
      "продюсер": 6713,
      "крыму": 6714,
      "восточнои": 6715,
      "дальнеишем": 6716,
      "ipad": 6717,
      "военнослуж": 6718,
      "пенсии": 6719,
      "госдумы": 6720,
      "заседании": 6721,
      "маршру": 6722,
      "владелец": 6723,
      "67": 6724,
      "cor": 6725,
      "демон": 6726,
      "нему": 6727,
      "##uc": 6728,
      "##банка": 6729,
      "страж": 6730,
      "автора": 6731,
      "##int": 6732,
      "главных": 6733,
      "##enc": 6734,
      "##ированнои": 6735,
      "##ящие": 6736,
      "фильмом": 6737,
      "используется": 6738,
      "релиза": 6739,
      "конкурсе": 6740,
      "заключения": 6741,
      "высокои": 6742,
      "следующем": 6743,
      "федерального": 6744,
      "уточняет": 6745,
      "аэрофл": 6746,
      "пират": 6747,
      "накануне": 6748,
      "таблице": 6749,
      "вернуться": 6750,
      "предусматривает": 6751,
      "приех": 6752,
      "intern": 6753,
      "означает": 6754,
      "челси": 6755,
      "62": 6756,
      "mon": 6757,
      "дик": 6758,
      "жю": 6759,
      "нер": 6760,
      "рождения": 6761,
      "##тера": 6762,
      "##бии": 6763,
      "поим": 6764,
      "##оичив": 6765,
      "обуч": 6766,
      "##ляются": 6767,
      "выраст": 6768,
      "##ург": 6769,
      "подп": 6770,
      "арсен": 6771,
      "деф": 6772,
      "столице": 6773,
      "очевид": 6774,
      "основным": 6775,
      "взрос": 6776,
      "картину": 6777,
      "видеор": 6778,
      "реклама": 6779,
      "общего": 6780,
      "##olog": 6781,
      "станут": 6782,
      "признан": 6783,
      "космод": 6784,
      "инвесторов": 6785,
      "документа": 6786,
      "покупке": 6787,
      "государственного": 6788,
      "обратился": 6789,
      "певец": 6790,
      "факту": 6791,
      "смартфонов": 6792,
      "сильно": 6793,
      "участвовать": 6794,
      "перенес": 6795,
      "полномоч": 6796,
      "привлечь": 6797,
      "гендиректор": 6798,
      "полузащитник": 6799,
      "швеции": 6800,
      "нидерланд": 6801,
      "библиот": 6802,
      "ков": 6803,
      "мыш": 6804,
      "мере": 6805,
      "смеш": 6806,
      "трем": 6807,
      "##юр": 6808,
      "##~~": 6809,
      "##икам": 6810,
      "##еко": 6811,
      "##оть": 6812,
      "измер": 6813,
      "коммуника": 6814,
      "работои": 6815,
      "полно": 6816,
      "начнут": 6817,
      "начнется": 6818,
      "##ульта": 6819,
      "видов": 6820,
      "финлянд": 6821,
      "##ics": 6822,
      "официального": 6823,
      "большую": 6824,
      "говорить": 6825,
      "настоящии": 6826,
      "часа": 6827,
      "состоит": 6828,
      "направлении": 6829,
      "называют": 6830,
      "открытия": 6831,
      "доходов": 6832,
      "касается": 6833,
      "напомн": 6834,
      "отоб": 6835,
      "дмитрия": 6836,
      "стадионе": 6837,
      "сантим": 6838,
      "мошенн": 6839,
      "нельзя": 6840,
      "вторая": 6841,
      "кем": 6842,
      "хват": 6843,
      "##рож": 6844,
      "##цат": 6845,
      "##кую": 6846,
      "##ast": 6847,
      "поед": 6848,
      "##едущ": 6849,
      "обстоятель": 6850,
      "изъ": 6851,
      "##еза": 6852,
      "разно": 6853,
      "разруш": 6854,
      "учетом": 6855,
      "##елях": 6856,
      "полеты": 6857,
      "игрока": 6858,
      "проекту": 6859,
      "##олока": 6860,
      "создатели": 6861,
      "концеп": 6862,
      "делает": 6863,
      "производителеи": 6864,
      "огром": 6865,
      "тамож": 6866,
      "денис": 6867,
      "романа": 6868,
      "предлагает": 6869,
      "малень": 6870,
      "комментарии": 6871,
      "намеч": 6872,
      "прибыли": 6873,
      "ребенка": 6874,
      "02": 6875,
      "wada": 6876,
      "гот": 6877,
      "ды": 6878,
      "определя": 6879,
      "сар": 6880,
      "сик": 6881,
      "шер": 6882,
      "шах": 6883,
      "проектом": 6884,
      "##овано": 6885,
      "распредел": 6886,
      "еврок": 6887,
      "##ираж": 6888,
      "должности": 6889,
      "повре": 6890,
      "чемпионом": 6891,
      "основатель": 6892,
      "120": 6893,
      "почтов": 6894,
      "##ings": 6895,
      "насчит": 6896,
      "гораз": 6897,
      "выставке": 6898,
      "многочис": 6899,
      "баск": 6900,
      "председателя": 6901,
      "церемония": 6902,
      "памяти": 6903,
      "##биратель": 6904,
      "происшествия": 6905,
      "отриц": 6906,
      "85": 6907,
      "ac": 6908,
      "sc": 6909,
      "вся": 6910,
      "вне": 6911,
      "виру": 6912,
      "жил": 6913,
      "мос": 6914,
      "мур": 6915,
      "мисс": 6916,
      "сибир": 6917,
      "фар": 6918,
      "чуть": 6919,
      "##дс": 6920,
      "##овая": 6921,
      "заинтерес": 6922,
      "обез": 6923,
      "обоз": 6924,
      "##ентами": 6925,
      "плеи": 6926,
      "##терн": 6927,
      "##ционные": 6928,
      "##циям": 6929,
      "##ировании": 6930,
      "сколько": 6931,
      "##ith": 6932,
      "последнего": 6933,
      "городах": 6934,
      "госком": 6935,
      "индекс": 6936,
      "исполнитель": 6937,
      "любои": 6938,
      "##ide": 6939,
      "выставки": 6940,
      "мирового": 6941,
      "пришел": 6942,
      "футбольнои": 6943,
      "россиянин": 6944,
      "изображения": 6945,
      "разрешение": 6946,
      "зрителеи": 6947,
      "ресурса": 6948,
      "структуры": 6949,
      "успешно": 6950,
      "пуск": 6951,
      "обслужив": 6952,
      "стабиль": 6953,
      "подключ": 6954,
      "nature": 6955,
      "бомбардиров": 6956,
      "гораздо": 6957,
      "tv": 6958,
      "мель": 6959,
      "ух": 6960,
      "фант": 6961,
      "##нета": 6962,
      "поедин": 6963,
      "подн": 6964,
      "##рег": 6965,
      "##ert": 6966,
      "##егаз": 6967,
      "##ana": 6968,
      "получения": 6969,
      "устанавлив": 6970,
      "корпу": 6971,
      "другом": 6972,
      "сотрудник": 6973,
      "модиф": 6974,
      "транз": 6975,
      "краине": 6976,
      "причины": 6977,
      "сказала": 6978,
      "1998": 6979,
      "космическои": 6980,
      "воздеиств": 6981,
      "художник": 6982,
      "игроки": 6983,
      "миха": 6984,
      "art": 6985,
      "капитала": 6986,
      "языке": 6987,
      "николаи": 6988,
      "постоянно": 6989,
      "следственного": 6990,
      "калифорнии": 6991,
      "700": 6992,
      "im": 6993,
      "брать": 6994,
      "##кан": 6995,
      "##бол": 6996,
      "##алом": 6997,
      "##еднев": 6998,
      "##азв": 6999,
      "##отланд": 7000,
      "спор": 7001,
      "расч": 7002,
      "193": 7003,
      "играл": 7004,
      "##att": 7005,
      "владив": 7006,
      "следствие": 7007,
      "могла": 7008,
      "подписали": 7009,
      "упомин": 7010,
      "способен": 7011,
      "изменении": 7012,
      "особенно": 7013,
      "испытании": 7014,
      "магазин": 7015,
      "билетов": 7016,
      "фестиваль": 7017,
      "ворота": 7018,
      "единственным": 7019,
      "финансирование": 7020,
      "небольш": 7021,
      "ключев": 7022,
      "сыграл": 7023,
      "квадрат": 7024,
      "street": 7025,
      "врат": 7026,
      "дуб": 7027,
      "диа": 7028,
      "рен": 7029,
      "шара": 7030,
      "##ином": 7031,
      "##бан": 7032,
      "##бар": 7033,
      "##гер": 7034,
      "##нод": 7035,
      "наста": 7036,
      "##олют": 7037,
      "выполня": 7038,
      "##еса": 7039,
      "##аха": 7040,
      "опуст": 7041,
      "серию": 7042,
      "##люз": 7043,
      "минув": 7044,
      "##ировано": 7045,
      "телес": 7046,
      "скры": 7047,
      "финале": 7048,
      "##ite": 7049,
      "последов": 7050,
      "голуб": 7051,
      "образов": 7052,
      "общии": 7053,
      "оценкам": 7054,
      "приняла": 7055,
      "##und": 7056,
      "запущен": 7057,
      "функции": 7058,
      "##age": 7059,
      "принадлежат": 7060,
      "нарушения": 7061,
      "реитинга": 7062,
      "олимпиаде": 7063,
      "финансирования": 7064,
      "отставку": 7065,
      "цифров": 7066,
      "ежеднев": 7067,
      "злоумышлен": 7068,
      "life": 7069,
      "mart": 7070,
      "pe": 7071,
      "вов": 7072,
      "зоны": 7073,
      "тои": 7074,
      "улиц": 7075,
      "##рации": 7076,
      "представлен": 7077,
      "столь": 7078,
      "поведение": 7079,
      "##иски": 7080,
      "суток": 7081,
      "руководства": 7082,
      "##ish": 7083,
      "##нула": 7084,
      "третьего": 7085,
      "директором": 7086,
      "проводится": 7087,
      "государственных": 7088,
      "аппаратов": 7089,
      "dead": 7090,
      "десятков": 7091,
      "баррелеи": 7092,
      "авиакомпания": 7093,
      "оружие": 7094,
      "оборудования": 7095,
      "охот": 7096,
      "мастер": 7097,
      "знаменито": 7098,
      "абсолют": 7099,
      "co": 7100,
      "али": 7101,
      "мем": 7102,
      "огра": 7103,
      "пь": 7104,
      "сесс": 7105,
      "шотланд": 7106,
      "##ies": 7107,
      "##панию": 7108,
      "##етраж": 7109,
      "подала": 7110,
      "россииское": 7111,
      "##ственные": 7112,
      "матчи": 7113,
      "тысячу": 7114,
      "джо": 7115,
      "планет": 7116,
      "##орах": 7117,
      "порно": 7118,
      "примет": 7119,
      "рекламных": 7120,
      "воспользов": 7121,
      "финансовые": 7122,
      "полуост": 7123,
      "внед": 7124,
      "олимпиискии": 7125,
      "сетях": 7126,
      "структура": 7127,
      "канады": 7128,
      "снизить": 7129,
      "гигаба": 7130,
      "аккаунт": 7131,
      "геимер": 7132,
      "манчестер": 7133,
      "ramb": 7134,
      "бе": 7135,
      "кисл": 7136,
      "сах": 7137,
      "уол": 7138,
      "##брь": 7139,
      "##юк": 7140,
      "##овую": 7141,
      "подлод": 7142,
      "экск": 7143,
      "страну": 7144,
      "брос": 7145,
      "##ical": 7146,
      "парка": 7147,
      "показал": 7148,
      "##ящеи": 7149,
      "объявлено": 7150,
      "ведомстве": 7151,
      "машина": 7152,
      "проводить": 7153,
      "боевои": 7154,
      "приложении": 7155,
      "##грали": 7156,
      "##ney": 7157,
      "соцсет": 7158,
      "спутников": 7159,
      "джеимс": 7160,
      "калиб": 7161,
      "экземп": 7162,
      "попросил": 7163,
      "russia": 7164,
      "rambler": 7165,
      "cr": 7166,
      "бое": 7167,
      "вэ": 7168,
      "кхл": 7169,
      "пуст": 7170,
      "рон": 7171,
      "тираж": 7172,
      "хью": 7173,
      "члены": 7174,
      "##аф": 7175,
      "##мун": 7176,
      "##ke": 7177,
      "##аном": 7178,
      "непод": 7179,
      "излуч": 7180,
      "комиссия": 7181,
      "долга": 7182,
      "слав": 7183,
      "новос": 7184,
      "джекс": 7185,
      "##никова": 7186,
      "завис": 7187,
      "черного": 7188,
      "вторым": 7189,
      "имп": 7190,
      "##iss": 7191,
      "1997": 7192,
      "доступен": 7193,
      "теме15": 7194,
      "условиям": 7195,
      "развитию": 7196,
      "каждого": 7197,
      "балт": 7198,
      "def": 7199,
      "исследователеи": 7200,
      "наиболь": 7201,
      "теме09": 7202,
      "авиации": 7203,
      "пункта": 7204,
      "композиции": 7205,
      "калин": 7206,
      "увидеть": 7207,
      "составляла": 7208,
      "##лигации": 7209,
      "кинотеат": 7210,
      "баскет": 7211,
      "ed": 7212,
      "ах": 7213,
      "ада": 7214,
      "вр": 7215,
      "вам": 7216,
      "зен": 7217,
      "лим": 7218,
      "сити": 7219,
      "юб": 7220,
      "##цент": 7221,
      "##ште": 7222,
      "##эфф": 7223,
      "##нополь": 7224,
      "##олю": 7225,
      "##ствовать": 7226,
      "202": 7227,
      "##уман": 7228,
      "192": 7229,
      "иметь": 7230,
      "прессе": 7231,
      "фильмах": 7232,
      "курса": 7233,
      "морскои": 7234,
      "договора": 7235,
      "физики": 7236,
      "выросли": 7237,
      "sport": 7238,
      "выяснили": 7239,
      "недостаточ": 7240,
      "болельщиков": 7241,
      "алкоголь": 7242,
      "наркотиков": 7243,
      "напоминает": 7244,
      "69": 7245,
      "68": 7246,
      "af": 7247,
      "бара": 7248,
      "вино": 7249,
      "грав": 7250,
      "ими": 7251,
      "лине": 7252,
      "мост": 7253,
      "снова": 7254,
      "##аю": 7255,
      "##мф": 7256,
      "##ug": 7257,
      "##бо": 7258,
      "##берг": 7259,
      "автов": 7260,
      "##ательные": 7261,
      "округа": 7262,
      "отметить": 7263,
      "москву": 7264,
      "раун": 7265,
      "рекламе": 7266,
      "##имонополь": 7267,
      "отказалась": 7268,
      "оценке": 7269,
      "признался": 7270,
      "лишения": 7271,
      "корабли": 7272,
      "призыв": 7273,
      "основании": 7274,
      "задержали": 7275,
      "антимонополь": 7276,
      "предоставить": 7277,
      "защитник": 7278,
      "ставки": 7279,
      "телеведущ": 7280,
      "арестован": 7281,
      "разрешения": 7282,
      "театре": 7283,
      "убииство": 7284,
      "пунктов": 7285,
      "бумаги": 7286,
      "патру": 7287,
      "спартака": 7288,
      "секунды": 7289,
      "наказание": 7290,
      "антидоп": 7291,
      "рожде": 7292,
      "жюри": 7293,
      "em": 7294,
      "ввести": 7295,
      "дель": 7296,
      "дни": 7297,
      "зна": 7298,
      "лаг": 7299,
      "ржд": 7300,
      "сав": 7301,
      "цели": 7302,
      "##ово": 7303,
      "##ерд": 7304,
      "##ителю": 7305,
      "##ателю": 7306,
      "##лада": 7307,
      "проити": 7308,
      "свин": 7309,
      "##реаг": 7310,
      "##ностями": 7311,
      "которыми": 7312,
      "##абот": 7313,
      "##ровать": 7314,
      "работников": 7315,
      "##ane": 7316,
      "начнет": 7317,
      "правления": 7318,
      "слово": 7319,
      "финал": 7320,
      "примеру": 7321,
      "большое": 7322,
      "##ящего": 7323,
      "генет": 7324,
      "атл": 7325,
      "кнр": 7326,
      "тренером": 7327,
      "авиаб": 7328,
      "дополнительных": 7329,
      "comp": 7330,
      "подготовки": 7331,
      "посетителеи": 7332,
      "галакт": 7333,
      "##надзора": 7334,
      "вкладов": 7335,
      "бумаг": 7336,
      "залож": 7337,
      "травмы": 7338,
      "##почему": 7339,
      "промышленности": 7340,
      "издательство": 7341,
      "кипр": 7342,
      "обвиняем": 7343,
      "компенсации": 7344,
      "твиттере": 7345,
      "##тернатив": 7346,
      "mot": 7347,
      "вторую": 7348,
      "дар": 7349,
      "ниг": 7350,
      "пек": 7351,
      "пир": 7352,
      "патр": 7353,
      "##ьи": 7354,
      "##еном": 7355,
      "##ерина": 7356,
      "нато": 7357,
      "##ори": 7358,
      "##обор": 7359,
      "годам": 7360,
      "воин": 7361,
      "одному": 7362,
      "продавать": 7363,
      "##ежда": 7364,
      "представил": 7365,
      "чемпиона": 7366,
      "мария": 7367,
      "голлив": 7368,
      "альтернатив": 7369,
      "случая": 7370,
      "макк": 7371,
      "причаст": 7372,
      "сторону": 7373,
      "часы": 7374,
      "ввод": 7375,
      "киноф": 7376,
      "собственные": 7377,
      "полуфин": 7378,
      "призв": 7379,
      "базы": 7380,
      "альбомов": 7381,
      "размещения": 7382,
      "автомобиля": 7383,
      "##штраф": 7384,
      "награды": 7385,
      "хоккеист": 7386,
      "brent": 7387,
      "дочер": 7388,
      "учреждения": 7389,
      "друзья": 7390,
      "инструмент": 7391,
      "полагают": 7392,
      "слухи": 7393,
      "74": 7394,
      "ab": 7395,
      "cy": 7396,
      "бок": 7397,
      "дума": 7398,
      "ленту": 7399,
      "оштраф": 7400,
      "сад": 7401,
      "тоже": 7402,
      "уа": 7403,
      "уник": 7404,
      "##ыж": 7405,
      "##зи": 7406,
      "##con": 7407,
      "##wood": 7408,
      "##ску": 7409,
      "##сколько": 7410,
      "##едлив": 7411,
      "##ственного": 7412,
      "продоволь": 7413,
      "страницы": 7414,
      "аренд": 7415,
      "##ley": 7416,
      "скид": 7417,
      "примут": 7418,
      "форума": 7419,
      "алексея": 7420,
      "звон": 7421,
      "доступна": 7422,
      "написала": 7423,
      "редактора": 7424,
      "проходить": 7425,
      "крупнеишим": 7426,
      "песня": 7427,
      "регионе": 7428,
      "площади": 7429,
      "движение": 7430,
      "переговоров": 7431,
      "двигателеи": 7432,
      "награду": 7433,
      "выручка": 7434,
      "дизаинер": 7435,
      "##epend": 7436,
      "неназв": 7437,
      "independ": 7438,
      "зафиксирован": 7439,
      "видеорол": 7440,
      "!»": 7441,
      "xx": 7442,
      "мать": 7443,
      "рун": 7444,
      "тиг": 7445,
      "фраг": 7446,
      "чар": 7447,
      "##оем": 7448,
      "##ды": 7449,
      "##ks": 7450,
      "##ану": 7451,
      "настав": 7452,
      "##личе": 7453,
      "обл": 7454,
      "##ляем": 7455,
      "сообщило": 7456,
      "##асть": 7457,
      "страниц": 7458,
      "интернета": 7459,
      "судья": 7460,
      "##ирам": 7461,
      "повлия": 7462,
      "развивать": 7463,
      "рубль": 7464,
      "поступит": 7465,
      "периода": 7466,
      "лидеров": 7467,
      "мировых": 7468,
      "холод": 7469,
      "певицы": 7470,
      "энерго": 7471,
      "современного": 7472,
      "слуш": 7473,
      "подтвердили": 7474,
      "научно": 7475,
      "собираются": 7476,
      "ответственности": 7477,
      "регулятор": 7478,
      "свидетельствуют": 7479,
      "эпизод": 7480,
      "виталии": 7481,
      "извинения": 7482,
      "андрея": 7483,
      "##производ": 7484,
      "граб": 7485,
      "елена": 7486,
      "кого": 7487,
      "лого": 7488,
      "мяс": 7489,
      "пист": 7490,
      "##рест": 7491,
      "##хоз": 7492,
      "##co": 7493,
      "##ier": 7494,
      "##ns": 7495,
      "##фика": 7496,
      "наряд": 7497,
      "неправ": 7498,
      "прожив": 7499,
      "##ожид": 7500,
      "##остро": 7501,
      "##ига": 7502,
      "началась": 7503,
      "нока": 7504,
      "##ath": 7505,
      "известия": 7506,
      "известность": 7507,
      "занимал": 7508,
      "московском": 7509,
      "источников": 7510,
      "источника": 7511,
      "запуска": 7512,
      "вооруженных": 7513,
      "украинских": 7514,
      "кредитов": 7515,
      "выбран": 7516,
      "предприятие": 7517,
      "объяснили": 7518,
      "фактически": 7519,
      "##aks": 7520,
      "гигант": 7521,
      "интел": 7522,
      "влияние": 7523,
      "пропаг": 7524,
      "обязанности": 7525,
      "множество": 7526,
      "нагруз": 7527,
      "монопол": 7528,
      "мошенниче": 7529,
      "фантаст": 7530,
      "independent": 7531,
      "wik": 7532,
      "банд": 7533,
      "дух": 7534,
      "мун": 7535,
      "сел": 7536,
      "##итор": 7537,
      "##com": 7538,
      "##чев": 7539,
      "##ve": 7540,
      "##vel": 7541,
      "##енков": 7542,
      "##ноп": 7543,
      "##оряд": 7544,
      "##осмос": 7545,
      "прож": 7546,
      "сообщают": 7547,
      "конд": 7548,
      "##ительности": 7549,
      "полтора": 7550,
      "орб": 7551,
      "представля": 7552,
      "уведом": 7553,
      "пари": 7554,
      "##ety": 7555,
      "##ous": 7556,
      "франш": 7557,
      "снять": 7558,
      "требует": 7559,
      "способны": 7560,
      "премия": 7561,
      "минуты": 7562,
      "предполагалось": 7563,
      "количества": 7564,
      "следующего": 7565,
      "писателя": 7566,
      "молодои": 7567,
      "диамет": 7568,
      "сетеи": 7569,
      "чиновники": 7570,
      "анализа": 7571,
      "павел": 7572,
      "характерист": 7573,
      "сравнения": 7574,
      "подразделения": 7575,
      "грозит": 7576,
      "экспресс": 7577,
      "одиноч": 7578,
      "калибра": 7579,
      "воль": 7580,
      "вмф": 7581,
      "гам": 7582,
      "ест": 7583,
      "мили": 7584,
      "##нении": 7585,
      "##яр": 7586,
      "##бек": 7587,
      "##одор": 7588,
      "##облад": 7589,
      "##естра": 7590,
      "конгр": 7591,
      "##ываться": 7592,
      "сервер": 7593,
      "устран": 7594,
      "завер": 7595,
      "##ica": 7596,
      "откро": 7597,
      "отклон": 7598,
      "трансли": 7599,
      "победои": 7600,
      "подписан": 7601,
      "состояв": 7602,
      "играет": 7603,
      "прошлои": 7604,
      "редакции": 7605,
      "торговли": 7606,
      "вооружения": 7607,
      "украинскои": 7608,
      "потери": 7609,
      "##ающихся": 7610,
      "книгу": 7611,
      "владельцы": 7612,
      "армии": 7613,
      "властями": 7614,
      "all": 7615,
      "аудитория": 7616,
      "оборудование": 7617,
      "поражения": 7618,
      "труда": 7619,
      "регулятора": 7620,
      "останется": 7621,
      "телескоп": 7622,
      "прокате": 7623,
      "допинг": 7624,
      "персонажеи": 7625,
      "экипаж": 7626,
      "мультфиль": 7627,
      "сопровожд": 7628,
      "роскосмос": 7629,
      "голливуд": 7630,
      "72": 7631,
      "gal": 7632,
      "гром": 7633,
      "доволь": 7634,
      "лав": 7635,
      "пищ": 7636,
      "хр": 7637,
      "хит": 7638,
      "##уем": 7639,
      "##рит": 7640,
      "##цеп": 7641,
      "##печат": 7642,
      "##гах": 7643,
      "прон": 7644,
      "##арда": 7645,
      "обе": 7646,
      "отраж": 7647,
      "коорд": 7648,
      "##атья": 7649,
      "разговор": 7650,
      "полетов": 7651,
      "главе": 7652,
      "решением": 7653,
      "##ald": 7654,
      "акция": 7655,
      "остался": 7656,
      "основные": 7657,
      "экономическои": 7658,
      "звезда": 7659,
      "управлением": 7660,
      "музыки": 7661,
      "добавила": 7662,
      "star": 7663,
      "написания": 7664,
      "здание": 7665,
      "##город": 7666,
      "объемы": 7667,
      "электро": 7668,
      "катастро": 7669,
      "использовали": 7670,
      "использоваться": 7671,
      "давно": 7672,
      "автоном": 7673,
      "снижения": 7674,
      "опубликовала": 7675,
      "избав": 7676,
      "избран": 7677,
      "наблюдения": 7678,
      "мвф": 7679,
      "подвод": 7680,
      "школы": 7681,
      "выплатить": 7682,
      "первоначально": 7683,
      "адмирал": 7684,
      "взросл": 7685,
      "михаила": 7686,
      "экземпля": 7687,
      "aw": 7688,
      "араб": 7689,
      "гип": 7690,
      "жид": 7691,
      "мм": 7692,
      "фа": 7693,
      "##кор": 7694,
      "##ирать": 7695,
      "##iel": 7696,
      "##ча": 7697,
      "##port": 7698,
      "наст": 7699,
      "настро": 7700,
      "##олго": 7701,
      "##ствием": 7702,
      "##име": 7703,
      "издел": 7704,
      "##ута": 7705,
      "##окои": 7706,
      "##озд": 7707,
      "составить": 7708,
      "посту": 7709,
      "устоичив": 7710,
      "колум": 7711,
      "информацион": 7712,
      "форме": 7713,
      "выступление": 7714,
      "##аемои": 7715,
      "санк": 7716,
      "портала": 7717,
      "зарплат": 7718,
      "позицию": 7719,
      "готовы": 7720,
      "билет": 7721,
      "федерация": 7722,
      "отличие": 7723,
      "инцидента": 7724,
      "полицеиских": 7725,
      "заметки": 7726,
      "карьеры": 7727,
      "приблиз": 7728,
      "заимется": 7729,
      "идея": 7730,
      "эксперимент": 7731,
      "протеста": 7732,
      "мозга": 7733,
      "существенно": 7734,
      "досроч": 7735,
      "свадь": 7736,
      "планировалось": 7737,
      "04": 7738,
      "78": 7739,
      "дес": 7740,
      "киб": 7741,
      "лог": 7742,
      "равно": 7743,
      "тал": 7744,
      "##ai": 7745,
      "##омат": 7746,
      "##авиа": 7747,
      "##рует": 7748,
      "##лах": 7749,
      "##еслав": 7750,
      "комсом": 7751,
      "##истка": 7752,
      "подним": 7753,
      "##ительными": 7754,
      "полез": 7755,
      "офиц": 7756,
      "##ict": 7757,
      "взыск": 7758,
      "показать": 7759,
      "говорил": 7760,
      "угрож": 7761,
      "случаев": 7762,
      "1992": 7763,
      "инвести": 7764,
      "полугод": 7765,
      "хотят": 7766,
      "песню": 7767,
      "публиков": 7768,
      "футбольныи": 7769,
      "подобных": 7770,
      "луко": 7771,
      "событии": 7772,
      "геор": 7773,
      "соревновании": 7774,
      "вероятно": 7775,
      "веществ": 7776,
      "аукционе": 7777,
      "скульпт": 7778,
      "fox": 7779,
      "веб": 7780,
      "вмеш": 7781,
      "нба": 7782,
      "уль": 7783,
      "фабр": 7784,
      "##ele": 7785,
      "##land": 7786,
      "##ноч": 7787,
      "##авшим": 7788,
      "отбор": 7789,
      "отреаг": 7790,
      "прокур": 7791,
      "доли": 7792,
      "##ическому": 7793,
      "##ывая": 7794,
      "возбуд": 7795,
      "анто": 7796,
      "##ательнои": 7797,
      "связь": 7798,
      "музее": 7799,
      "заброс": 7800,
      "камер": 7801,
      "1999": 7802,
      "машину": 7803,
      "##ологии": 7804,
      "музыканта": 7805,
      "точно": 7806,
      "##ерва": 7807,
      "консоли": 7808,
      "письме": 7809,
      "хозяев": 7810,
      "структур": 7811,
      "заметил": 7812,
      "девушки": 7813,
      "рознич": 7814,
      "вещи": 7815,
      "израиля": 7816,
      "администрация": 7817,
      "аэропорту": 7818,
      "внутренних": 7819,
      "наличие": 7820,
      "илья": 7821,
      "врачи": 7822,
      "international": 7823,
      "новосибир": 7824,
      "зенита": 7825,
      "гом": 7826,
      "дир": 7827,
      "рода": 7828,
      "челя": 7829,
      "шп": 7830,
      "шок": 7831,
      "##нь": 7832,
      "##кет": 7833,
      "##оо": 7834,
      "##вили": 7835,
      "##шение": 7836,
      "##ain": 7837,
      "##онст": 7838,
      "##осн": 7839,
      "каким": 7840,
      "расчет": 7841,
      "минф": 7842,
      "страна": 7843,
      "аркт": 7844,
      "##форд": 7845,
      "##мущ": 7846,
      "планах": 7847,
      "поможет": 7848,
      "создав": 7849,
      "контент": 7850,
      "компаниям": 7851,
      "отметив": 7852,
      "агресс": 7853,
      "побереж": 7854,
      "рассказывает": 7855,
      "ученым": 7856,
      "занимался": 7857,
      "родился": 7858,
      "##unes": 7859,
      "увеличение": 7860,
      "##провода": 7861,
      "перевод": 7862,
      "каждои": 7863,
      "прослуш": 7864,
      "лидера": 7865,
      "лидером": 7866,
      "французскии": 7867,
      "ресурсов": 7868,
      "1980": 7869,
      "спутник": 7870,
      "##ike": 7871,
      "порядке": 7872,
      "трое": 7873,
      "иван": 7874,
      "фирмы": 7875,
      "хоккеинои": 7876,
      "птиц": 7877,
      "зелен": 7878,
      "science": 7879,
      "собеседник": 7880,
      "паралимп": 7881,
      "невозможно": 7882,
      "иногда": 7883,
      "martin": 7884,
      "пропаганд": 7885,
      "челябин": 7886,
      "08": 7887,
      "el": 7888,
      "tor": 7889,
      "леж": 7890,
      "румы": 7891,
      "съ": 7892,
      "фаил": 7893,
      "церк": 7894,
      "##еев": 7895,
      "##цова": 7896,
      "##цкии": 7897,
      "##вен": 7898,
      "##ипер": 7899,
      "##пс": 7900,
      "##эд": 7901,
      "##алеи": 7902,
      "##илов": 7903,
      "стих": 7904,
      "##циона": 7905,
      "переж": 7906,
      "##иды": 7907,
      "##очные": 7908,
      "##ировка": 7909,
      "руки": 7910,
      "составляют": 7911,
      "саиты": 7912,
      "джен": 7913,
      "послуж": 7914,
      "системои": 7915,
      "возможных": 7916,
      "экономике": 7917,
      "включает": 7918,
      "##act": 7919,
      "##руктур": 7920,
      "призвал": 7921,
      "животного": 7922,
      "выпустил": 7923,
      "джонс": 7924,
      "стрель": 7925,
      "ознаком": 7926,
      "начиная": 7927,
      "##трк": 7928,
      "предупред": 7929,
      "##ившегося": 7930,
      "литератур": 7931,
      "академии": 7932,
      "выглядит": 7933,
      "##американ": 7934,
      "71": 7935,
      "ele": 7936,
      "астер": 7937,
      "гаст": 7938,
      "дать": 7939,
      "мист": 7940,
      "мала": 7941,
      "сеч": 7942,
      "##уск": 7943,
      "##ипу": 7944,
      "##ьми": 7945,
      "##aul": 7946,
      "сотов": 7947,
      "обам": 7948,
      "выплаты": 7949,
      "##обще": 7950,
      "##ющую": 7951,
      "191": 7952,
      "правило": 7953,
      "своему": 7954,
      "собак": 7955,
      "стоить": 7956,
      "украину": 7957,
      "мартин": 7958,
      "сделано": 7959,
      "большим": 7960,
      "образования": 7961,
      "раиона": 7962,
      "открыл": 7963,
      "##ешев": 7964,
      "ролике": 7965,
      "вопросам": 7966,
      "продолжает": 7967,
      "политику": 7968,
      "предполагает": 7969,
      "содержится": 7970,
      "##нефти": 7971,
      "защите": 7972,
      "запрещенных": 7973,
      "сократить": 7974,
      "владельцев": 7975,
      "пытались": 7976,
      "половине": 7977,
      "кратко": 7978,
      "вдох": 7979,
      "железнод": 7980,
      "itunes": 7981,
      "египет": 7982,
      "золотои": 7983,
      "сбербанка": 7984,
      "пластинка": 7985,
      "сведениям": 7986,
      "арбитражныи": 7987,
      "степени": 7988,
      "дефицит": 7989,
      "железнодорож": 7990,
      "holl": 7991,
      "my": 7992,
      "nasa": 7993,
      "sw": 7994,
      "вг": 7995,
      "лар": 7996,
      "мете": 7997,
      "рот": 7998,
      "сформ": 7999,
      "##мон": 8000,
      "##ализации": 8001,
      "##гот": 8002,
      "сос": 8003,
      "##лялись": 8004,
      "##есточ": 8005,
      "переб": 8006,
      "комик": 8007,
      "##ностях": 8008,
      "разбиратель": 8009,
      "спир": 8010,
      "##ленного": 8011,
      "полныи": 8012,
      "получив": 8013,
      "постеп": 8014,
      "округ": 8015,
      "местного": 8016,
      "газет": 8017,
      "решению": 8018,
      "джек": 8019,
      "больницу": 8020,
      "завода": 8021,
      "удосто": 8022,
      "добров": 8023,
      "говорят": 8024,
      "потратить": 8025,
      "попала": 8026,
      "доступны": 8027,
      "метро": 8028,
      "намерев": 8029,
      "журналиста": 8030,
      "скорости": 8031,
      "выставка": 8032,
      "востока": 8033,
      "размещение": 8034,
      "назначения": 8035,
      "роберт": 8036,
      "субсид": 8037,
      "гарри": 8038,
      "стрел": 8039,
      "стадии": 8040,
      "экспорта": 8041,
      "приключ": 8042,
      "краткое": 8043,
      "акционеров": 8044,
      "пристав": 8045,
      "конфликта": 8046,
      "результатам": 8047,
      "спецслуж": 8048,
      "спроса": 8049,
      "музыканты": 8050,
      "друзеи": 8051,
      "skype": 8052,
      "задолженности": 8053,
      "кеит": 8054,
      "вирту": 8055,
      "гигабаит": 8056,
      "3d": 8057,
      "61": 8058,
      "дум": 8059,
      "дети": 8060,
      "жена": 8061,
      "звер": 8062,
      "##лев": 8063,
      "##фель": 8064,
      "##эр": 8065,
      "##овало": 8066,
      "##ииского": 8067,
      "##инар": 8068,
      "##имин": 8069,
      "выз": 8070,
      "подешев": 8071,
      "вообще": 8072,
      "россиискими": 8073,
      "рефор": 8074,
      "##роп": 8075,
      "конец": 8076,
      "плот": 8077,
      "экв": 8078,
      "##ополь": 8079,
      "##ors": 8080,
      "тело": 8081,
      "концерн": 8082,
      "экспоз": 8083,
      "медаль": 8084,
      "появление": 8085,
      "пары": 8086,
      "имена": 8087,
      "общую": 8088,
      "предложила": 8089,
      "используются": 8090,
      "президенту": 8091,
      "оператор": 8092,
      "кампанию": 8093,
      "признали": 8094,
      "севаст": 8095,
      "проводит": 8096,
      "снимок": 8097,
      "баллист": 8098,
      "выиграла": 8099,
      "наши": 8100,
      "режима": 8101,
      "другого": 8102,
      "опубликовали": 8103,
      "выдвин": 8104,
      "съемок": 8105,
      "грив": 8106,
      "архе": 8107,
      "отозв": 8108,
      "ipo": 8109,
      "рабочих": 8110,
      "категор": 8111,
      "механизм": 8112,
      "литерат": 8113,
      "вертолеты": 8114,
      "ориент": 8115,
      "ограб": 8116,
      "естествен": 8117,
      "88": 8118,
      "габ": 8119,
      "кс": 8120,
      "лож": 8121,
      "нрав": 8122,
      "ускор": 8123,
      "##лина": 8124,
      "##утом": 8125,
      "##ьет": 8126,
      "облож": 8127,
      "##оборон": 8128,
      "неит": 8129,
      "##рукции": 8130,
      "##альности": 8131,
      "##програм": 8132,
      "предмет": 8133,
      "##ково": 8134,
      "аркад": 8135,
      "стоят": 8136,
      "счаст": 8137,
      "карты": 8138,
      "названия": 8139,
      "торже": 8140,
      "разработчик": 8141,
      "велич": 8142,
      "бюро": 8143,
      "поддержке": 8144,
      "воду": 8145,
      "упали": 8146,
      "теме17": 8147,
      "опубликованы": 8148,
      "знак": 8149,
      "##министра": 8150,
      "людям": 8151,
      "потребовал": 8152,
      "футбольных": 8153,
      "распространение": 8154,
      "похит": 8155,
      "похищ": 8156,
      "абрам": 8157,
      "брауз": 8158,
      "биржи": 8159,
      "трансляцию": 8160,
      "объекты": 8161,
      "голосования": 8162,
      "придум": 8163,
      "##резв": 8164,
      "модернизации": 8165,
      "нападения": 8166,
      "бесплатно": 8167,
      "предприниматель": 8168,
      "вдв": 8169,
      "прежнему": 8170,
      "казахст": 8171,
      "лиге": 8172,
      "##ileaks": 8173,
      "турнирнои": 8174,
      "лаборатории": 8175,
      "кинофестив": 8176,
      "83": 8177,
      "96": 8178,
      "car": 8179,
      "mir": 8180,
      "дали": 8181,
      "зоне": 8182,
      "кер": 8183,
      "клад": 8184,
      "мертв": 8185,
      "ол": 8186,
      "сен": 8187,
      "##уля": 8188,
      "##ык": 8189,
      "##50": 8190,
      "##итед": 8191,
      "##емся": 8192,
      "##осе": 8193,
      "изв": 8194,
      "##проч": 8195,
      "подз": 8196,
      "подав": 8197,
      "##ительность": 8198,
      "всер": 8199,
      "##андии": 8200,
      "провин": 8201,
      "##ированныи": 8202,
      "##ord": 8203,
      "##писи": 8204,
      "##пления": 8205,
      "колеб": 8206,
      "банком": 8207,
      "американец": 8208,
      "замеч": 8209,
      "добиться": 8210,
      "марка": 8211,
      "##строи": 8212,
      "пятер": 8213,
      "международная": 8214,
      "##ays": 8215,
      "этап": 8216,
      "произошла": 8217,
      "депоз": 8218,
      "популярность": 8219,
      "крупнеишии": 8220,
      "дорого": 8221,
      "правооблад": 8222,
      "поиска": 8223,
      "пожар": 8224,
      "энергии": 8225,
      "избежать": 8226,
      "констант": 8227,
      "гостеи": 8228,
      "капитан": 8229,
      "amaz": 8230,
      "верхов": 8231,
      "природ": 8232,
      "казахстан": 8233,
      "вселеннои": 8234,
      "цвета": 8235,
      "париже": 8236,
      "mac": 8237,
      "res": 8238,
      "кук": 8239,
      "##яют": 8240,
      "##дам": 8241,
      "##ae": 8242,
      "##стре": 8243,
      "насколько": 8244,
      "##евич": 8245,
      "вычис": 8246,
      "##истом": 8247,
      "##ади": 8248,
      "##способ": 8249,
      "##ицеи": 8250,
      "временно": 8251,
      "##люка": 8252,
      "создал": 8253,
      "иска": 8254,
      "потрат": 8255,
      "альфа": 8256,
      "победа": 8257,
      "нефте": 8258,
      "##ington": 8259,
      "сказать": 8260,
      "кампания": 8261,
      "автором": 8262,
      "теме16": 8263,
      "здании": 8264,
      "краснои": 8265,
      "украинского": 8266,
      "специальныи": 8267,
      "прогресс": 8268,
      "французского": 8269,
      "клубов": 8270,
      "статус": 8271,
      "сокращения": 8272,
      "фестивале": 8273,
      "половины": 8274,
      "##cial": 8275,
      "сюж": 8276,
      "тюрем": 8277,
      "леди": 8278,
      "гендиректора": 8279,
      "алкоголя": 8280,
      "леонид": 8281,
      "кандидат": 8282,
      "нелег": 8283,
      "шарап": 8284,
      "wikileaks": 8285,
      "holly": 8286,
      "доброволь": 8287,
      "red": 8288,
      "вяч": 8289,
      "ждет": 8290,
      "кип": 8291,
      "се": 8292,
      "сур": 8293,
      "цир": 8294,
      "яс": 8295,
      "##анти": 8296,
      "пола": 8297,
      "пополн": 8298,
      "##толог": 8299,
      "##едении": 8300,
      "##емат": 8301,
      "##ствах": 8302,
      "##еих": 8303,
      "##имость": 8304,
      "стен": 8305,
      "стек": 8306,
      "кожи": 8307,
      "##езии": 8308,
      "будем": 8309,
      "корруп": 8310,
      "вида": 8311,
      "##atch": 8312,
      "туропера": 8313,
      "##соверш": 8314,
      "примеч": 8315,
      "генпрок": 8316,
      "индив": 8317,
      "бюджете": 8318,
      "землю": 8319,
      "социальная": 8320,
      "вечер": 8321,
      "соответствующее": 8322,
      "невы": 8323,
      "раскры": 8324,
      "повышение": 8325,
      "чиновник": 8326,
      "##ющихся": 8327,
      "сотрудничестве": 8328,
      "##поратив": 8329,
      "##ившиися": 8330,
      "##волю": 8331,
      "океан": 8332,
      "отсутствие": 8333,
      "гагар": 8334,
      "games": 8335,
      "евроком": 8336,
      "вячеслав": 8337,
      "tod": 8338,
      "бул": 8339,
      "дает": 8340,
      "иго": 8341,
      "лун": 8342,
      "улюка": 8343,
      "целях": 8344,
      "эволю": 8345,
      "##фикации": 8346,
      "##пот": 8347,
      "##что": 8348,
      "##ale": 8349,
      "##ga": 8350,
      "##алин": 8351,
      "наступ": 8352,
      "##елло": 8353,
      "##имов": 8354,
      "##изировать": 8355,
      "подел": 8356,
      "##илищ": 8357,
      "##ленное": 8358,
      "плак": 8359,
      "главные": 8360,
      "совещ": 8361,
      "скрыв": 8362,
      "америки": 8363,
      "поводом": 8364,
      "разработка": 8365,
      "экономика": 8366,
      "##нулись": 8367,
      "госкор": 8368,
      "обвинили": 8369,
      "вышли": 8370,
      "направления": 8371,
      "кубок": 8372,
      "некоторое": 8373,
      "артем": 8374,
      "русскои": 8375,
      "французскои": 8376,
      "определить": 8377,
      "искусств": 8378,
      "##rip": 8379,
      "##rist": 8380,
      "реструктур": 8381,
      "раскрыв": 8382,
      "архив": 8383,
      "контроля": 8384,
      "загруз": 8385,
      "сотрудничество": 8386,
      "заместителя": 8387,
      "острове": 8388,
      "поражение": 8389,
      "##vice": 8390,
      "маркет": 8391,
      "анонсирован": 8392,
      "наталь": 8393,
      "прокомментировал": 8394,
      "сбербанк": 8395,
      "расстояние": 8396,
      "соревнованиях": 8397,
      "латв": 8398,
      "цитирует": 8399,
      "брюсс": 8400,
      "перешел": 8401,
      "норвегии": 8402,
      "владивост": 8403,
      "интеллект": 8404,
      "вдохнов": 8405,
      "hollywood": 8406,
      "77": 8407,
      "out": 8408,
      "roll": 8409,
      "wall": 8410,
      "yah": 8411,
      "креп": 8412,
      "озвуч": 8413,
      "пы": 8414,
      "пе": 8415,
      "печ": 8416,
      "труп": 8417,
      "эми": 8418,
      "юна": 8419,
      "##уна": 8420,
      "##ве": 8421,
      "##sa": 8422,
      "##анным": 8423,
      "##имых": 8424,
      "отец": 8425,
      "203": 8426,
      "##иры": 8427,
      "##уроч": 8428,
      "ослаб": 8429,
      "главои": 8430,
      "представлена": 8431,
      "##орам": 8432,
      "взял": 8433,
      "сделка": 8434,
      "развора": 8435,
      "находились": 8436,
      "##ящии": 8437,
      "британских": 8438,
      "операцию": 8439,
      "обнарод": 8440,
      "апел": 8441,
      "отношению": 8442,
      "кндр": 8443,
      "ответил": 8444,
      "собственныи": 8445,
      "необходимые": 8446,
      "осужд": 8447,
      "единиц": 8448,
      "носителя": 8449,
      "владельцем": 8450,
      "парамет": 8451,
      "пытался": 8452,
      "будущего": 8453,
      "продукты": 8454,
      "убиистве": 8455,
      "аэропорта": 8456,
      "комплексов": 8457,
      "регулярного": 8458,
      "энергетики": 8459,
      "вещества": 8460,
      "прокуратура": 8461,
      "становится": 8462,
      "парламент": 8463,
      "finan": 8464,
      "опрош": 8465,
      "преодол": 8466,
      "церкви": 8467,
      "госкорпора": 8468,
      "yahoo": 8469,
      "юнаитед": 8470,
      "che": 8471,
      "jane": 8472,
      "ty": 8473,
      "вл": 8474,
      "ноб": 8475,
      "ощ": 8476,
      "сом": 8477,
      "слаб": 8478,
      "##лера": 8479,
      "##кос": 8480,
      "##кости": 8481,
      "##tv": 8482,
      "##анскии": 8483,
      "##ексу": 8484,
      "облигации": 8485,
      "серия": 8486,
      "##люда": 8487,
      "##ательныи": 8488,
      "получает": 8489,
      "корпоратив": 8490,
      "судом": 8491,
      "##ующии": 8492,
      "связаны": 8493,
      "экспон": 8494,
      "выступили": 8495,
      "результатов": 8496,
      "финанс": 8497,
      "рекламнои": 8498,
      "клубе": 8499,
      "ракета": 8500,
      "квали": 8501,
      "inf": 8502,
      "выходит": 8503,
      "обвинение": 8504,
      "понят": 8505,
      "##ures": 8506,
      "политика": 8507,
      "земле": 8508,
      "задеиств": 8509,
      "потерял": 8510,
      "генерал": 8511,
      "мэра": 8512,
      "небес": 8513,
      "обращения": 8514,
      "повышения": 8515,
      "##obal": 8516,
      "скач": 8517,
      "килограмма": 8518,
      "рассчитывает": 8519,
      "екатерина": 8520,
      "стабил": 8521,
      "заплатить": 8522,
      "warner": 8523,
      "поправки": 8524,
      "комментариев": 8525,
      "роскомнадзор": 8526,
      "любовь": 8527,
      "ремонт": 8528,
      "индустрии": 8529,
      "поединок": 8530,
      "готова": 8531,
      "орбиту": 8532,
      "amazon": 8533,
      "индивиду": 8534,
      "...": 8535,
      "gre": 8536,
      "ира": 8537,
      "мтс": 8538,
      "пив": 8539,
      "тут": 8540,
      "фн": 8541,
      "##нам": 8542,
      "##ден": 8543,
      "##ls": 8544,
      "##эль": 8545,
      "##енция": 8546,
      "##овое": 8547,
      "##инь": 8548,
      "##основ": 8549,
      "##ствами": 8550,
      "обс": 8551,
      "выда": 8552,
      "выгод": 8553,
      "комн": 8554,
      "##ованнои": 8555,
      "разные": 8556,
      "##erg": 8557,
      "##ировку": 8558,
      "полот": 8559,
      "начались": 8560,
      "правда": 8561,
      "очка": 8562,
      "экспед": 8563,
      "голки": 8564,
      "взять": 8565,
      "##шихся": 8566,
      "выступит": 8567,
      "установки": 8568,
      "используют": 8569,
      "операционнои": 8570,
      "1994": 8571,
      "поступил": 8572,
      "завершения": 8573,
      "антик": 8574,
      "приобрела": 8575,
      "пожертв": 8576,
      "десятилет": 8577,
      "грече": 8578,
      "space": 8579,
      "далее": 8580,
      "иванов": 8581,
      "отдельных": 8582,
      "законодательства": 8583,
      "##ематограф": 8584,
      "золото": 8585,
      "одержал": 8586,
      "копеек": 8587,
      "##ology": 8588,
      "финляндии": 8589,
      "сантиметров": 8590,
      "##барго": 8591,
      "метеор": 8592,
      "07": 8593,
      "man": 8594,
      "пля": 8595,
      "##мед": 8596,
      "##рол": 8597,
      "##тп": 8598,
      "##зыч": 8599,
      "##сроч": 8600,
      "##пед": 8601,
      "##pace": 8602,
      "##анцев": 8603,
      "##ервис": 8604,
      "##тог": 8605,
      "##инент": 8606,
      "неж": 8607,
      "##отв": 8608,
      "##ившись": 8609,
      "вызов": 8610,
      "вылет": 8611,
      "2019": 8612,
      "сообщали": 8613,
      "##убии": 8614,
      "##ленно": 8615,
      "заявку": 8616,
      "трои": 8617,
      "##ательного": 8618,
      "правос": 8619,
      "провела": 8620,
      "парф": 8621,
      "разработкои": 8622,
      "разработчиков": 8623,
      "победителем": 8624,
      "герман": 8625,
      "установлено": 8626,
      "индон": 8627,
      "выходные": 8628,
      "сервисе": 8629,
      "поступила": 8630,
      "атаки": 8631,
      "опубликованном": 8632,
      "номера": 8633,
      "собственнои": 8634,
      "проходят": 8635,
      "совершил": 8636,
      "аэрод": 8637,
      "приобрел": 8638,
      "товари": 8639,
      "продукцию": 8640,
      "распозн": 8641,
      "джеим": 8642,
      "након": 8643,
      "представителями": 8644,
      "евгения": 8645,
      "уверен": 8646,
      "ушел": 8647,
      "преимуществен": 8648,
      "девяти": 8649,
      "металлург": 8650,
      "service": 8651,
      "кинематограф": 8652,
      "coc": 8653,
      "gr": 8654,
      "vol": 8655,
      "баг": 8656,
      "дистан": 8657,
      "зуб": 8658,
      "кул": 8659,
      "лов": 8660,
      "оон": 8661,
      "ооо": 8662,
      "руп": 8663,
      "улич": 8664,
      "хам": 8665,
      "хаб": 8666,
      "##мах": 8667,
      "##уточ": 8668,
      "##be": 8669,
      "##ерия": 8670,
      "##олос": 8671,
      "обработ": 8672,
      "стрем": 8673,
      "такую": 8674,
      "реестр": 8675,
      "приуроч": 8676,
      "##кус": 8677,
      "##оязыч": 8678,
      "##ковои": 8679,
      "оправ": 8680,
      "##ровид": 8681,
      "##ong": 8682,
      "началось": 8683,
      "составлял": 8684,
      "евровид": 8685,
      "##ируются": 8686,
      "болгар": 8687,
      "##orn": 8688,
      "джона": 8689,
      "участии": 8690,
      "создали": 8691,
      "удерж": 8692,
      "##ающее": 8693,
      "замминистра": 8694,
      "термин": 8695,
      "производстве": 8696,
      "результатив": 8697,
      "путем": 8698,
      "правительством": 8699,
      "встро": 8700,
      "сторона": 8701,
      "ближ": 8702,
      "покупки": 8703,
      "периодом": 8704,
      "магазинах": 8705,
      "налога": 8706,
      "предлагают": 8707,
      "лично": 8708,
      "пояснили": 8709,
      "компьютеров": 8710,
      "общественного": 8711,
      "напомним": 8712,
      "ассоциация": 8713,
      "отсут": 8714,
      "западнои": 8715,
      "единственныи": 8716,
      "обладатель": 8717,
      "enter": 8718,
      "идеи": 8719,
      "списка": 8720,
      "задача": 8721,
      "хакер": 8722,
      "произведении": 8723,
      "микроблоге": 8724,
      "долгосроч": 8725,
      "норвеж": 8726,
      "зарубежных": 8727,
      "начальник": 8728,
      "регистрации": 8729,
      "километра": 8730,
      "легкоат": 8731,
      "анатолии": 8732,
      "ухуд": 8733,
      "внедр": 8734,
      "думаю": 8735,
      "нокаутом": 8736,
      "вгтрк": 8737,
      "!\"": 8738,
      "82": 8739,
      "go": 8740,
      "lov": 8741,
      "she": 8742,
      "бат": 8743,
      "батар": 8744,
      "довер": 8745,
      "мам": 8746,
      "фрон": 8747,
      "##цом": 8748,
      "##оц": 8749,
      "##яются": 8750,
      "##oh": 8751,
      "##uz": 8752,
      "##ba": 8753,
      "набор": 8754,
      "##орв": 8755,
      "##ореи": 8756,
      "##ороз": 8757,
      "обама": 8758,
      "непол": 8759,
      "неожид": 8760,
      "##лят": 8761,
      "##ичью": 8762,
      "##ольнои": 8763,
      "кому": 8764,
      "##огод": 8765,
      "##ировке": 8766,
      "исправ": 8767,
      "##eng": 8768,
      "##ense": 8769,
      "удив": 8770,
      "##ающую": 8771,
      "посред": 8772,
      "сделку": 8773,
      "производителя": 8774,
      "находиться": 8775,
      "##аемыи": 8776,
      "победил": 8777,
      "активе": 8778,
      "камеры": 8779,
      "оценки": 8780,
      "белых": 8781,
      "1996": 8782,
      "дальнего": 8783,
      "подтвержд": 8784,
      "носит": 8785,
      "вызвал": 8786,
      "##планет": 8787,
      "борьбу": 8788,
      "##официаль": 8789,
      "beat": 8790,
      "amer": 8791,
      "солд": 8792,
      "болельщик": 8793,
      "кличке": 8794,
      "клетки": 8795,
      "зоопарка": 8796,
      "проиграл": 8797,
      "четвертыи": 8798,
      "уильямс": 8799,
      "месси": 8800,
      "космодрома": 8801,
      "квадратных": 8802,
      "телесери": 8803,
      "92": 8804,
      "nok": 8805,
      "аку": 8806,
      "идут": 8807,
      "кру": 8808,
      "куд": 8809,
      "лош": 8810,
      "фам": 8811,
      "хл": 8812,
      "чм": 8813,
      "шель": 8814,
      "##we": 8815,
      "наших": 8816,
      "##авр": 8817,
      "##ократ": 8818,
      "крос": 8819,
      "##ега": 8820,
      "серти": 8821,
      "возмущ": 8822,
      "##люб": 8823,
      "правиль": 8824,
      "банке": 8825,
      "передать": 8826,
      "актеры": 8827,
      "польши": 8828,
      "последняя": 8829,
      "презента": 8830,
      "привести": 8831,
      "основу": 8832,
      "покину": 8833,
      "сотрудникам": 8834,
      "##out": 8835,
      "сумел": 8836,
      "сектора": 8837,
      "запрета": 8838,
      "белого": 8839,
      "музыку": 8840,
      "водитель": 8841,
      "упала": 8842,
      "требуется": 8843,
      "магнит": 8844,
      "смогла": 8845,
      "таил": 8846,
      "регионов": 8847,
      "запрещено": 8848,
      "ресурсы": 8849,
      "проблема": 8850,
      "сохранить": 8851,
      "афиш": 8852,
      "бирж": 8853,
      "азии": 8854,
      "чиновников": 8855,
      "ведущии": 8856,
      "снял": 8857,
      "лондонскои": 8858,
      "знаменит": 8859,
      "ребенок": 8860,
      "первенства": 8861,
      "чехии": 8862,
      "перемещ": 8863,
      "сессии": 8864,
      "экземпляров": 8865,
      "gm": 8866,
      "mer": 8867,
      "ros": 8868,
      "баб": 8869,
      "вьет": 8870,
      "гитар": 8871,
      "диз": 8872,
      "зл": 8873,
      "ким": 8874,
      "нп": 8875,
      "хан": 8876,
      "##меи": 8877,
      "##менты": 8878,
      "##cr": 8879,
      "##ral": 8880,
      "##ect": 8881,
      "##bus": 8882,
      "предотв": 8883,
      "##ывала": 8884,
      "планов": 8885,
      "##ann": 8886,
      "полученные": 8887,
      "другая": 8888,
      "участниками": 8889,
      "заведения": 8890,
      "отметки": 8891,
      "черныи": 8892,
      "##оточ": 8893,
      "недвиж": 8894,
      "взлет": 8895,
      "официальные": 8896,
      "##stem": 8897,
      "сделали": 8898,
      "видеок": 8899,
      "объявления": 8900,
      "##ямую": 8901,
      "насеком": 8902,
      "ролика": 8903,
      "космонав": 8904,
      "инвесторы": 8905,
      "аппараты": 8906,
      "семье": 8907,
      "транспорта": 8908,
      "смерть": 8909,
      "товары": 8910,
      "исключительно": 8911,
      "германия": 8912,
      "армеи": 8913,
      "аукциона": 8914,
      "##бурге": 8915,
      "питания": 8916,
      "пострадали": 8917,
      "синт": 8918,
      "силуанов": 8919,
      "заработал": 8920,
      "турнире": 8921,
      "прокуратуры": 8922,
      "гибели": 8923,
      "аналитики": 8924,
      "египта": 8925,
      "телевидения": 8926,
      "концерта": 8927,
      "месторождения": 8928,
      "госпитализ": 8929,
      "бактер": 8930,
      "происхождения": 8931,
      "87": 8932,
      "bill": 8933,
      "впроч": 8934,
      "хэ": 8935,
      "ярос": 8936,
      "##физ": 8937,
      "поясня": 8938,
      "##итете": 8939,
      "##арх": 8940,
      "##амен": 8941,
      "стим": 8942,
      "света": 8943,
      "рефер": 8944,
      "##ственныи": 8945,
      "самое": 8946,
      "анна": 8947,
      "тему": 8948,
      "эколог": 8949,
      "смит": 8950,
      "человеком": 8951,
      "##ild": 8952,
      "появятся": 8953,
      "выступать": 8954,
      "выпуска": 8955,
      "рекламод": 8956,
      "почты": 8957,
      "правительстве": 8958,
      "владимиру": 8959,
      "обнаружены": 8960,
      "четверть": 8961,
      "теме18": 8962,
      "состоятся": 8963,
      "понять": 8964,
      "объема": 8965,
      "едино": 8966,
      "открытии": 8967,
      "ограничении": 8968,
      "проверить": 8969,
      "современных": 8970,
      "обращение": 8971,
      "пытается": 8972,
      "##ake": 8973,
      "1970": 8974,
      "принятия": 8975,
      "вошел": 8976,
      "электронных": 8977,
      "аналогичным": 8978,
      "приказ": 8979,
      "толст": 8980,
      "относится": 8981,
      "сигнал": 8982,
      "справедлив": 8983,
      "правилам": 8984,
      "платформе": 8985,
      "конечно": 8986,
      "риме": 8987,
      "строчку": 8988,
      "##ившиеся": 8989,
      "распоряж": 8990,
      "лебедев": 8991,
      "хоккею": 8992,
      "##ербаидж": 8993,
      "лекар": 8994,
      "galax": 8995,
      "преимущественно": 8996,
      "nokia": 8997,
      "впрочем": 8998,
      "ярослав": 8999,
      "84": 9000,
      "ge": 9001,
      "gen": 9002,
      "ice": 9003,
      "сц": 9004,
      "ху": 9005,
      "хал": 9006,
      "цук": 9007,
      "##уран": 9008,
      "##кость": 9009,
      "##жер": 9010,
      "##yn": 9011,
      "##паз": 9012,
      "##гал": 9013,
      "##года": 9014,
      "##js": 9015,
      "##олет": 9016,
      "##арк": 9017,
      "##авшеи": 9018,
      "##авшись": 9019,
      "##ряс": 9020,
      "##очныи": 9021,
      "двад": 9022,
      "##пуль": 9023,
      "сереб": 9024,
      "полков": 9025,
      "##ond": 9026,
      "частично": 9027,
      "##оплан": 9028,
      "соблюд": 9029,
      "американским": 9030,
      "##лока": 9031,
      "зампред": 9032,
      "ведут": 9033,
      "медали": 9034,
      "официальнои": 9035,
      "большие": 9036,
      "моды": 9037,
      "моделеи": 9038,
      "противор": 9039,
      "путь": 9040,
      "крупные": 9041,
      "согласился": 9042,
      "велос": 9043,
      "восприн": 9044,
      "использованием": 9045,
      "состояния": 9046,
      "четвертом": 9047,
      "намерено": 9048,
      "космических": 9049,
      "теме12": 9050,
      "##игиоз": 9051,
      "значит": 9052,
      "беседе": 9053,
      "консол": 9054,
      "робот": 9055,
      "регионах": 9056,
      "диаг": 9057,
      "предлагается": 9058,
      "закону": 9059,
      "вертолетонос": 9060,
      "азербаидж": 9061,
      "mark": 9062,
      "надежду": 9063,
      "вручения": 9064,
      "блат": 9065,
      "заменить": 9066,
      "экзоплан": 9067,
      "ленинград": 9068,
      "дисци": 9069,
      "iii": 9070,
      "здоровья": 9071,
      "самоубии": 9072,
      "##ившихся": 9073,
      "тюрьмы": 9074,
      "вашингтон": 9075,
      "непосредственно": 9076,
      "антидопинг": 9077,
      "катастроф": 9078,
      "примечательно": 9079,
      "financial": 9080,
      "galaxy": 9081,
      "79": 9082,
      "bi": 9083,
      "бонд": 9084,
      "дне": 9085,
      "длин": 9086,
      "кеи": 9087,
      "кре": 9088,
      "мало": 9089,
      "шла": 9090,
      "##нера": 9091,
      "##оск": 9092,
      "##ябрь": 9093,
      "##air": 9094,
      "##овед": 9095,
      "##анее": 9096,
      "##ерь": 9097,
      "##елли": 9098,
      "прощ": 9099,
      "##ичь": 9100,
      "росп": 9101,
      "##иде": 9102,
      "##ранс": 9103,
      "компон": 9104,
      "##ленную": 9105,
      "##ционная": 9106,
      "##any": 9107,
      "##изациеи": 9108,
      "начался": 9109,
      "частиц": 9110,
      "странами": 9111,
      "устарев": 9112,
      "##пление": 9113,
      "##ающими": 9114,
      "контакт": 9115,
      "очками": 9116,
      "информациеи": 9117,
      "связанных": 9118,
      "сотни": 9119,
      "терм": 9120,
      "клубом": 9121,
      "героин": 9122,
      "пишут": 9123,
      "выходить": 9124,
      "1995": 9125,
      "третья": 9126,
      "торговых": 9127,
      "напрямую": 9128,
      "животные": 9129,
      "европеискои": 9130,
      "квартире": 9131,
      "сцене": 9132,
      "биолог": 9133,
      "дипл": 9134,
      "инфляции": 9135,
      "медведева": 9136,
      "выполнять": 9137,
      "возглавлял": 9138,
      "отменить": 9139,
      "обращении": 9140,
      "половинои": 9141,
      "освещ": 9142,
      "брендом": 9143,
      "фигуран": 9144,
      "топливо": 9145,
      "правоохранительные": 9146,
      "аудитории": 9147,
      "перспективе": 9148,
      "предварительным": 9149,
      "недоступ": 9150,
      "золота": 9151,
      "идею": 9152,
      "##tain": 9153,
      "продлится": 9154,
      "психолог": 9155,
      "переработ": 9156,
      "виновным": 9157,
      "экстремист": 9158,
      "инфраструктуры": 9159,
      "подозрению": 9160,
      "##энерго": 9161,
      "просмотров": 9162,
      "черномор": 9163,
      "градусов": 9164,
      "ольга": 9165,
      "полноцен": 9166,
      "defense": 9167,
      "гравита": 9168,
      "today": 9169,
      "86": 9170,
      "98": 9171,
      "qu": 9172,
      "кинг": 9173,
      "плен": 9174,
      "пул": 9175,
      "пирам": 9176,
      "рент": 9177,
      "спр": 9178,
      "эх": 9179,
      "яд": 9180,
      "##нх": 9181,
      "##бус": 9182,
      "##чук": 9183,
      "##юсь": 9184,
      "##олд": 9185,
      "##атлон": 9186,
      "обход": 9187,
      "##отех": 9188,
      "стю": 9189,
      "##лачив": 9190,
      "миллимет": 9191,
      "математ": 9192,
      "орк": 9193,
      "прова": 9194,
      "местнои": 9195,
      "собрать": 9196,
      "акцию": 9197,
      "турцию": 9198,
      "фильму": 9199,
      "американском": 9200,
      "остальных": 9201,
      "связанные": 9202,
      "привел": 9203,
      "##ilm": 9204,
      "##мыш": 9205,
      "сотрудниками": 9206,
      "терак": 9207,
      "видеох": 9208,
      "штур": 9209,
      "настоящему": 9210,
      "футболисты": 9211,
      "соответствует": 9212,
      "зарплаты": 9213,
      "валерии": 9214,
      "заключается": 9215,
      "требованием": 9216,
      "космет": 9217,
      "покупателеи": 9218,
      "проходил": 9219,
      "следующеи": 9220,
      "задум": 9221,
      "спортсмена": 9222,
      "молодых": 9223,
      "площадь": 9224,
      "растор": 9225,
      "существования": 9226,
      "азиат": 9227,
      "питом": 9228,
      "комплексы": 9229,
      "эмбарго": 9230,
      "жительница": 9231,
      "скандала": 9232,
      "##сятся": 9233,
      "всемирного": 9234,
      "перерыв": 9235,
      "имущества": 9236,
      "паспорт": 9237,
      "диапаз": 9238,
      "довольно": 9239,
      "ознакомиться": 9240,
      "референд": 9241,
      "видеохост": 9242,
      "06": 9243,
      "fe": 9244,
      "fm": 9245,
      "pol": 9246,
      "беж": 9247,
      "гин": 9248,
      "дур": 9249,
      "туда": 9250,
      "убыт": 9251,
      "чика": 9252,
      "чеш": 9253,
      "шеф": 9254,
      "ювел": 9255,
      "##oon": 9256,
      "##la": 9257,
      "##стся": 9258,
      "##орци": 9259,
      "##авра": 9260,
      "обыг": 9261,
      "обсуд": 9262,
      "неофициаль": 9263,
      "##торию": 9264,
      "##прип": 9265,
      "свя": 9266,
      "разоб": 9267,
      "##ительном": 9268,
      "новому": 9269,
      "новогод": 9270,
      "##очки": 9271,
      "опек": 9272,
      "##ющее": 9273,
      "принца": 9274,
      "деят": 9275,
      "плана": 9276,
      "##сыла": 9277,
      "##инор": 9278,
      "недо": 9279,
      "привело": 9280,
      "основная": 9281,
      "##стаф": 9282,
      "сотрудника": 9283,
      "франция": 9284,
      "открыть": 9285,
      "звание": 9286,
      "религиоз": 9287,
      "сервисов": 9288,
      "завершился": 9289,
      "здрав": 9290,
      "собственного": 9291,
      "высоко": 9292,
      "группои": 9293,
      "группового": 9294,
      "группировки": 9295,
      "утверд": 9296,
      "особен": 9297,
      "350": 9298,
      "интерфаксу": 9299,
      "олимпииского": 9300,
      "консорци": 9301,
      "площадки": 9302,
      "прекратить": 9303,
      "немецкии": 9304,
      "выделить": 9305,
      "светл": 9306,
      "выразили": 9307,
      "василь": 9308,
      "##культ": 9309,
      "менеджер": 9310,
      "выплач": 9311,
      "сообщества": 9312,
      "потерпев": 9313,
      "ливер": 9314,
      "удастся": 9315,
[...]
